<pad>	0
<unk>	0
<s>	0
</s>	0
<extra_id_0>	0
<extra_id_1>	0
<extra_id_2>	0
<extra_id_3>	0
<0x00>	0
<0x01>	0
<0x02>	0
<0x03>	0
<0x04>	0
<0x05>	0
<0x06>	0
<0x07>	0
<0x08>	0
<0x09>	0
<0x0A>	0
<0x0B>	0
<0x0C>	0
<0x0D>	0
<0x0E>	0
<0x0F>	0
<0x10>	0
<0x11>	0
<0x12>	0
<0x13>	0
<0x14>	0
<0x15>	0
<0x16>	0
<0x17>	0
<0x18>	0
<0x19>	0
<0x1A>	0
<0x1B>	0
<0x1C>	0
<0x1D>	0
<0x1E>	0
<0x1F>	0
<0x20>	0
<0x21>	0
<0x22>	0
<0x23>	0
<0x24>	0
<0x25>	0
<0x26>	0
<0x27>	0
<0x28>	0
<0x29>	0
<0x2A>	0
<0x2B>	0
<0x2C>	0
<0x2D>	0
<0x2E>	0
<0x2F>	0
<0x30>	0
<0x31>	0
<0x32>	0
<0x33>	0
<0x34>	0
<0x35>	0
<0x36>	0
<0x37>	0
<0x38>	0
<0x39>	0
<0x3A>	0
<0x3B>	0
<0x3C>	0
<0x3D>	0
<0x3E>	0
<0x3F>	0
<0x40>	0
<0x41>	0
<0x42>	0
<0x43>	0
<0x44>	0
<0x45>	0
<0x46>	0
<0x47>	0
<0x48>	0
<0x49>	0
<0x4A>	0
<0x4B>	0
<0x4C>	0
<0x4D>	0
<0x4E>	0
<0x4F>	0
<0x50>	0
<0x51>	0
<0x52>	0
<0x53>	0
<0x54>	0
<0x55>	0
<0x56>	0
<0x57>	0
<0x58>	0
<0x59>	0
<0x5A>	0
<0x5B>	0
<0x5C>	0
<0x5D>	0
<0x5E>	0
<0x5F>	0
<0x60>	0
<0x61>	0
<0x62>	0
<0x63>	0
<0x64>	0
<0x65>	0
<0x66>	0
<0x67>	0
<0x68>	0
<0x69>	0
<0x6A>	0
<0x6B>	0
<0x6C>	0
<0x6D>	0
<0x6E>	0
<0x6F>	0
<0x70>	0
<0x71>	0
<0x72>	0
<0x73>	0
<0x74>	0
<0x75>	0
<0x76>	0
<0x77>	0
<0x78>	0
<0x79>	0
<0x7A>	0
<0x7B>	0
<0x7C>	0
<0x7D>	0
<0x7E>	0
<0x7F>	0
<0x80>	0
<0x81>	0
<0x82>	0
<0x83>	0
<0x84>	0
<0x85>	0
<0x86>	0
<0x87>	0
<0x88>	0
<0x89>	0
<0x8A>	0
<0x8B>	0
<0x8C>	0
<0x8D>	0
<0x8E>	0
<0x8F>	0
<0x90>	0
<0x91>	0
<0x92>	0
<0x93>	0
<0x94>	0
<0x95>	0
<0x96>	0
<0x97>	0
<0x98>	0
<0x99>	0
<0x9A>	0
<0x9B>	0
<0x9C>	0
<0x9D>	0
<0x9E>	0
<0x9F>	0
<0xA0>	0
<0xA1>	0
<0xA2>	0
<0xA3>	0
<0xA4>	0
<0xA5>	0
<0xA6>	0
<0xA7>	0
<0xA8>	0
<0xA9>	0
<0xAA>	0
<0xAB>	0
<0xAC>	0
<0xAD>	0
<0xAE>	0
<0xAF>	0
<0xB0>	0
<0xB1>	0
<0xB2>	0
<0xB3>	0
<0xB4>	0
<0xB5>	0
<0xB6>	0
<0xB7>	0
<0xB8>	0
<0xB9>	0
<0xBA>	0
<0xBB>	0
<0xBC>	0
<0xBD>	0
<0xBE>	0
<0xBF>	0
<0xC0>	0
<0xC1>	0
<0xC2>	0
<0xC3>	0
<0xC4>	0
<0xC5>	0
<0xC6>	0
<0xC7>	0
<0xC8>	0
<0xC9>	0
<0xCA>	0
<0xCB>	0
<0xCC>	0
<0xCD>	0
<0xCE>	0
<0xCF>	0
<0xD0>	0
<0xD1>	0
<0xD2>	0
<0xD3>	0
<0xD4>	0
<0xD5>	0
<0xD6>	0
<0xD7>	0
<0xD8>	0
<0xD9>	0
<0xDA>	0
<0xDB>	0
<0xDC>	0
<0xDD>	0
<0xDE>	0
<0xDF>	0
<0xE0>	0
<0xE1>	0
<0xE2>	0
<0xE3>	0
<0xE4>	0
<0xE5>	0
<0xE6>	0
<0xE7>	0
<0xE8>	0
<0xE9>	0
<0xEA>	0
<0xEB>	0
<0xEC>	0
<0xED>	0
<0xEE>	0
<0xEF>	0
<0xF0>	0
<0xF1>	0
<0xF2>	0
<0xF3>	0
<0xF4>	0
<0xF5>	0
<0xF6>	0
<0xF7>	0
<0xF8>	0
<0xF9>	0
<0xFA>	0
<0xFB>	0
<0xFC>	0
<0xFD>	0
<0xFE>	0
<0xFF>	0
▁t	-0
▁a	-1
he	-2
in	-3
re	-4
▁the	-5
on	-6
er	-7
▁o	-8
at	-9
▁s	-10
en	-11
▁c	-12
▁w	-13
es	-14
is	-15
nd	-16
it	-17
or	-18
▁p	-19
al	-20
▁b	-21
ed	-22
▁of	-23
an	-24
▁f	-25
ing	-26
▁in	-27
ou	-28
ar	-29
▁m	-30
▁and	-31
▁to	-32
ic	-33
▁d	-34
ion	-35
le	-36
ro	-37
as	-38
▁h	-39
ent	-40
▁th	-41
ct	-42
▁e	-43
il	-44
▁re	-45
▁T	-46
om	-47
ve	-48
▁l	-49
st	-50
▁n	-51
ly	-52
▁be	-53
▁is	-54
se	-55
ol	-56
▁g	-57
▁A	-58
ation	-59
im	-60
id	-61
et	-62
ut	-63
ce	-64
▁S	-65
ot	-66
ur	-67
ra	-68
ch	-69
▁I	-70
ow	-71
▁for	-72
ig	-73
▁u	-74
▁that	-75
▁C	-76
▁on	-77
▁st	-78
ver	-79
▁The	-80
▁y	-81
ir	-82
ul	-83
ay	-84
am	-85
▁as	-86
ith	-87
el	-88
ad	-89
▁pro	-90
her	-91
▁are	-92
▁con	-93
▁an	-94
▁with	-95
▁M	-96
if	-97
▁you	-98
▁wh	-99
▁it	-100
▁or	-101
▁al	-102
▁P	-103
od	-104
ter	-105
▁(	-106
ment	-107
▁B	-108
ge	-109
th	-110
▁W	-111
op	-112
ate	-113
ist	-114
▁de	-115
ers	-116
ess	-117
▁H	-118
ill	-119
▁he	-120
ies	-121
ab	-122
▁ex	-123
▁su	-124
ect	-125
▁we	-126
ore	-127
▁com	-128
us	-129
ity	-130
est	-131
▁ha	-132
res	-133
ive	-134
ac	-135
▁D	-136
um	-137
rom	-138
▁v	-139
ld	-140
os	-141
ke	-142
▁by	-143
▁E	-144
ant	-145
▁F	-146
em	-147
qu	-148
iv	-149
ain	-150
▁R	-151
nt	-152
▁at	-153
pp	-154
igh	-155
▁can	-156
▁was	-157
▁-	-158
ud	-159
▁from	-160
▁ch	-161
oc	-162
▁r	-163
ort	-164
and	-165
▁ne	-166
▁N	-167
ial	-168
▁se	-169
▁G	-170
▁L	-171
ure	-172
un	-173
▁not	-174
▁le	-175
ical	-176
art	-177
▁have	-178
ri	-179
og	-180
▁sh	-181
▁en	-182
▁sp	-183
▁this	-184
▁O	-185
pt	-186
▁In	-187
ight	-188
▁wor	-189
▁ab	-190
rou	-191
ich	-192
red	-193
all	-194
ions	-195
ould	-196
ther	-197
ost	-198
gh	-199
our	-200
ome	-201
du	-202
▁im	-203
ated	-204
ine	-205
per	-206
▁us	-207
▁pl	-208
ag	-209
out	-210
ard	-211
act	-212
▁their	-213
ell	-214
ff	-215
ide	-216
▁int	-217
pl	-218
▁J	-219
▁Th	-220
▁U	-221
ear	-222
ans	-223
ast	-224
age	-225
ak	-226
ust	-227
▁your	-228
▁which	-229
▁k	-230
▁whe	-231
▁they	-232
ous	-233
ec	-234
iz	-235
ood	-236
▁ad	-237
ult	-238
▁all	-239
▁will	-240
▁cont	-241
ib	-242
▁inc	-243
cc	-244
end	-245
▁dis	-246
ru	-247
▁comp	-248
▁more	-249
ap	-250
▁“	-251
▁res	-252
ong	-253
ip	-254
vel	-255
ations	-256
ia	-257
▁has	-258
ew	-259
ere	-260
▁do	-261
so	-262
orm	-263
ary	-264
ater	-265
able	-266
ence	-267
are	-268
ild	-269
▁man	-270
▁cl	-271
▁other	-272
ual	-273
ks	-274
▁but	-275
▁were	-276
ry	-277
ind	-278
▁per	-279
▁te	-280
▁imp	-281
ep	-282
ents	-283
ance	-284
ach	-285
▁me	-286
▁also	-287
▁one	-288
reat	-289
ose	-290
ign	-291
ake	-292
ress	-293
ass	-294
ase	-295
av	-296
▁St	-297
au	-298
▁j	-299
▁so	-300
ction	-301
ition	-302
▁It	-303
▁out	-304
▁un	-305
ice	-306
ber	-307
▁app	-308
very	-309
ime	-310
one	-311
▁ar	-312
▁part	-313
▁This	-314
▁stud	-315
▁about	-316
▁"	-317
ord	-318
ace	-319
▁ev	-320
ens	-321
ory	-322
ount	-323
▁K	-324
ish	-325
ok	-326
ire	-327
▁who	-328
▁pe	-329
▁inf	-330
ack	-331
ame	-332
).	-333
▁sy	-334
▁his	-335
▁comm	-336
ors	-337
ue	-338
▁sc	-339
▁them	-340
ub	-341
ite	-342
ang	-343
ces	-344
ike	-345
ound	-346
ree	-347
▁pre	-348
olog	-349
now	-350
low	-351
▁bec	-352
▁Ch	-353
▁up	-354
ric	-355
▁may	-356
▁qu	-357
▁than	-358
iff	-359
ie	-360
ile	-361
ays	-362
ople	-363
▁rec	-364
▁some	-365
▁year	-366
ail	-367
▁when	-368
▁V	-369
ates	-370
▁been	-371
▁Y	-372
▁there	-373
nder	-374
ings	-375
ian	-376
▁its	-377
mer	-378
▁into	-379
rit	-380
ren	-381
▁work	-382
▁go	-383
ough	-384
▁tra	-385
▁time	-386
▁ag	-387
▁over	-388
ph	-389
▁diff	-390
▁these	-391
▁how	-392
▁people	-393
vers	-394
erv	-395
▁ro	-396
te	-397
ally	-398
rough	-399
ons	-400
lud	-401
ause	-402
▁cons	-403
▁use	-404
▁col	-405
ond	-406
▁tr	-407
ific	-408
▁ra	-409
ms	-410
ll	-411
▁our	-412
tern	-413
▁bet	-414
▁had	-415
ove	-416
▁act	-417
we	-418
alth	-419
ys	-420
▁most	-421
▁like	-422
int	-423
ities	-424
▁know	-425
▁under	-426
irst	-427
▁bl	-428
▁sa	-429
lic	-430
▁acc	-431
ments	-432
lect	-433
row	-434
▁des	-435
ject	-436
les	-437
ning	-438
ious	-439
ook	-440
velop	-441
▁would	-442
stem	-443
ffect	-444
▁new	-445
▁need	-446
▁tw	-447
▁rel	-448
▁such	-449
▁Wh	-450
▁rep	-451
▁if	-452
▁child	-453
ient	-454
▁hel	-455
▁gen	-456
▁includ	-457
▁any	-458
ational	-459
ob	-460
cess	-461
ative	-462
ple	-463
hed	-464
▁pr	-465
▁help	-466
▁what	-467
ular	-468
▁ph	-469
ced	-470
▁used	-471
▁produ	-472
yp	-473
ating	-474
▁only	-475
▁Un	-476
ool	-477
ov	-478
▁ind	-479
▁prov	-480
▁no	-481
▁am	-482
▁many	-483
▁develop	-484
▁off	-485
▁through	-486
▁first	-487
▁fe	-488
▁spec	-489
),	-490
ath	-491
fter	-492
▁ac	-493
▁As	-494
ise	-495
round	-496
ark	-497
iet	-498
oss	-499
ics	-500
▁reg	-501
▁em	-502
▁exp	-503
uc	-504
▁po	-505
uring	-506
▁differe	-507
▁system	-508
hen	-509
▁two	-510
▁He	-511
ful	-512
erm	-513
rib	-514
ts	-515
oth	-516
eth	-517
▁–	-518
iss	-519
ink	-520
ne	-521
▁ob	-522
ied	-523
rop	-524
ility	-525
▁dec	-526
old	-527
als	-528
▁ass	-529
ased	-530
▁att	-531
ible	-532
▁add	-533
ange	-534
▁sur	-535
ten	-536
▁should	-537
arch	-538
ower	-539
ures	-540
▁well	-541
ife	-542
ble	-543
fore	-544
ween	-545
ert	-546
ract	-547
▁supp	-548
▁fl	-549
▁rem	-550
▁water	-551
ng	-552
ram	-553
▁inv	-554
▁sub	-555
own	-556
▁health	-557
aw	-558
▁co	-559
▁years	-560
gan	-561
▁between	-562
▁sm	-563
ade	-564
sel	-565
ution	-566
▁high	-567
hes	-568
▁could	-569
▁pres	-570
cy	-571
▁where	-572
its	-573
ever	-574
ick	-575
▁trans	-576
▁make	-577
▁rese	-578
▁If	-579
wn	-580
ily	-581
ants	-582
▁get	-583
▁bu	-584
▁pers	-585
uch	-586
xt	-587
▁import	-588
chool	-589
ology	-590
▁We	-591
chn	-592
form	-593
▁her	-594
ural	-595
ience	-596
ident	-597
▁ear	-598
▁mod	-599
▁form	-600
▁inter	-601
ting	-602
▁num	-603
▁pol	-604
ited	-605
▁inst	-606
▁How	-607
meric	-608
▁exam	-609
▁Al	-610
ines	-611
ivers	-612
▁disc	-613
ins	-614
land	-615
▁different	-616
▁An	-617
▁effect	-618
ef	-619
▁lear	-620
▁For	-621
ata	-622
▁found	-623
ness	-624
▁because	-625
ict	-626
ists	-627
▁sim	-628
▁after	-629
ont	-630
▁car	-631
▁exper	-632
ually	-633
▁long	-634
▁world	-635
▁lar	-636
ism	-637
▁med	-638
▁even	-639
▁very	-640
▁incre	-641
▁then	-642
gy	-643
▁cent	-644
▁just	-645
cept	-646
ft	-647
oy	-648
▁count	-649
ature	-650
▁ed	-651
▁way	-652
▁det	-653
▁typ	-654
▁resp	-655
▁hum	-656
get	-657
▁inform	-658
urn	-659
aking	-660
▁Americ	-661
▁sign	-662
vent	-663
ically	-664
▁see	-665
▁var	-666
other	-667
▁ke	-668
▁gener	-669
ives	-670
▁those	-671
▁ref	-672
iew	-673
ck	-674
▁fol	-675
▁pat	-676
▁Re	-677
▁Pro	-678
▁ext	-679
▁soc	-680
▁process	-681
▁result	-682
▁prog	-683
▁every	-684
▁pub	-685
▁said	-686
cer	-687
▁Com	-688
▁children	-689
▁call	-690
▁fact	-691
ases	-692
arm	-693
▁gra	-694
ros	-695
▁being	-696
▁each	-697
ues	-698
▁ca	-699
▁loc	-700
▁sec	-701
ps	-702
▁There	-703
.”	-704
ds	-705
▁They	-706
led	-707
iron	-708
▁requ	-709
ruct	-710
ody	-711
▁important	-712
▁techn	-713
▁partic	-714
ages	-715
▁life	-716
ork	-717
tle	-718
▁dist	-719
▁set	-720
▁commun	-721
ved	-722
▁mon	-723
▁she	-724
▁much	-725
io	-726
▁def	-727
▁during	-728
▁dep	-729
▁cre	-730
▁ent	-731
ather	-732
..	-733
▁fam	-734
▁art	-735
ized	-736
cent	-737
▁students	-738
imes	-739
▁lead	-740
▁read	-741
ward	-742
vern	-743
▁own	-744
▁follow	-745
▁level	-746
▁food	-747
▁sk	-748
ices	-749
▁my	-750
▁information	-751
▁study	-752
gg	-753
▁aut	-754
▁right	-755
▁Ar	-756
▁does	-757
▁same	-758
▁data	-759
▁made	-760
▁grow	-761
ize	-762
▁proble	-763
▁find	-764
any	-765
▁person	-766
▁But	-767
ection	-768
hip	-769
▁good	-770
▁You	-771
▁cur	-772
▁school	-773
▁av	-774
▁min	-775
▁str	-776
▁end	-777
▁back	-778
▁both	-779
▁ins	-780
onom	-781
ted	-782
▁di	-783
ale	-784
▁che	-785
ality	-786
▁using	-787
▁show	-788
▁hist	-789
und	-790
viron	-791
▁pop	-792
▁Sp	-793
▁expl	-794
.,	-795
▁Ind	-796
▁comple	-797
▁grou	-798
▁before	-799
▁cor	-800
▁gl	-801
▁test	-802
read	-803
▁small	-804
stand	-805
ivid	-806
▁main	-807
iel	-808
ially	-809
▁treat	-810
▁What	-811
iversity	-812
▁bo	-813
||	-814
▁Sc	-815
inal	-816
ined	-817
ock	-818
▁often	-819
▁New	-820
▁again	-821
▁val	-822
ince	-823
▁sol	-824
omen	-825
▁br	-826
▁less	-827
▁prot	-828
ars	-829
der	-830
ix	-831
▁while	-832
nce	-833
rol	-834
▁dise	-835
ergy	-836
imate	-837
▁poss	-838
▁day	-839
ty	-840
▁take	-841
▁state	-842
ien	-843
▁research	-844
▁lit	-845
ished	-846
ute	-847
▁occ	-848
▁ec	-849
ax	-850
▁number	-851
akes	-852
▁now	-853
▁serv	-854
▁And	-855
▁ris	-856
▁power	-857
ral	-858
▁|	-859
▁organ	-860
▁body	-861
ex	-862
oh	-863
▁fun	-864
▁mem	-865
vironment	-866
ier	-867
▁When	-868
ulation	-869
▁vis	-870
▁cell	-871
▁provid	-872
▁him	-873
▁activ	-874
dition	-875
iety	-876
ury	-877
▁char	-878
irect	-879
▁around	-880
▁hand	-881
iqu	-882
▁design	-883
▁human	-884
▁These	-885
▁class	-886
▁redu	-887
▁support	-888
up	-889
▁down	-890
air	-891
iving	-892
▁bel	-893
ves	-894
▁three	-895
com	-896
ered	-897
▁common	-898
hers	-899
ters	-900
▁must	-901
ital	-902
▁conf	-903
▁start	-904
ah	-905
ger	-906
▁look	-907
▁est	-908
ium	-909
▁Is	-910
▁elect	-911
uss	-912
aj	-913
▁cle	-914
ven	-915
▁point	-916
▁great	-917
rent	-918
ving	-919
▁plan	-920
,”	-921
acter	-922
▁govern	-923
▁To	-924
day	-925
ains	-926
▁ser	-927
ross	-928
▁large	-929
▁report	-930
ave	-931
▁did	-932
▁example	-933
▁writ	-934
▁land	-935
▁care	-936
the	-937
self	-938
▁‘	-939
cl	-940
▁contin	-941
ional	-942
▁op	-943
ron	-944
▁Se	-945
ouse	-946
gen	-947
rain	-948
itions	-949
ull	-950
▁allow	-951
▁including	-952
ared	-953
orn	-954
anc	-955
▁equ	-956
▁const	-957
▁adv	-958
▁understand	-959
▁met	-960
way	-961
▁build	-962
▁educ	-963
ash	-964
▁ret	-965
▁though	-966
▁dr	-967
▁cour	-968
▁called	-969
▁De	-970
ner	-971
aterial	-972
▁At	-973
iver	-974
▁pract	-975
iven	-976
▁beh	-977
The	-978
▁known	-979
outh	-980
esp	-981
▁som	-982
ividual	-983
▁still	-984
▁public	-985
me	-986
els	-987
ired	-988
ential	-989
▁eas	-990
ids	-991
▁quest	-992
oms	-993
▁gu	-994
iod	-995
▁Ad	-996
▁place	-997
oci	-998
ries	-999
osed	-1000
▁ide	-1001
ected	-1002
▁However	-1003
▁appro	-1004
▁think	-1005
▁might	-1006
de	-1007
▁gre	-1008
itive	-1009
inc	-1010
ization	-1011
▁mat	-1012
erest	-1013
▁few	-1014
ering	-1015
lish	-1016
▁caus	-1017
▁tem	-1018
▁chang	-1019
▁stand	-1020
ination	-1021
raph	-1022
▁Eng	-1023
▁present	-1024
ources	-1025
▁environment	-1026
▁within	-1027
eng	-1028
ank	-1029
▁change	-1030
▁energy	-1031
▁dem	-1032
▁individual	-1033
bers	-1034
."	-1035
ording	-1036
▁pur	-1037
▁Con	-1038
ption	-1039
▁product	-1040
ration	-1041
▁want	-1042
▁without	-1043
oun	-1044
▁Ex	-1045
ived	-1046
▁sym	-1047
▁development	-1048
▁phys	-1049
ense	-1050
▁material	-1051
ffic	-1052
▁iss	-1053
ior	-1054
▁light	-1055
▁meth	-1056
ason	-1057
ets	-1058
▁impro	-1059
ertain	-1060
angu	-1061
▁imm	-1062
▁cap	-1063
line	-1064
agn	-1065
▁University	-1066
▁prof	-1067
▁play	-1068
▁project	-1069
▁pot	-1070
▁Ph	-1071
▁ident	-1072
▁air	-1073
▁learn	-1074
▁Sh	-1075
▁spe	-1076
▁disease	-1077
▁ben	-1078
▁American	-1079
man	-1080
▁pos	-1081
▁Res	-1082
▁ve	-1083
▁don	-1084
less	-1085
▁sl	-1086
▁direct	-1087
iness	-1088
▁bre	-1089
arent	-1090
▁eng	-1091
▁sit	-1092
sp	-1093
alk	-1094
▁social	-1095
▁area	-1096
▁anal	-1097
▁pass	-1098
eral	-1099
ability	-1100
ental	-1101
ton	-1102
▁another	-1103
illion	-1104
▁women	-1105
▁meas	-1106
bs	-1107
▁&	-1108
gin	-1109
ield	-1110
orth	-1111
▁best	-1112
ians	-1113
ological	-1114
▁home	-1115
▁ant	-1116
ajor	-1117
▁belie	-1118
▁include	-1119
▁blood	-1120
ified	-1121
▁et	-1122
erc	-1123
▁cult	-1124
▁bas	-1125
▁law	-1126
▁mark	-1127
▁On	-1128
▁pain	-1129
ify	-1130
▁risk	-1131
▁mus	-1132
▁Cl	-1133
ained	-1134
ris	-1135
▁Be	-1136
▁[	-1137
▁interest	-1138
rodu	-1139
atural	-1140
ug	-1141
▁desc	-1142
atic	-1143
▁control	-1144
▁rest	-1145
▁opp	-1146
ccess	-1147
ently	-1148
▁become	-1149
▁low	-1150
ats	-1151
▁Le	-1152
ining	-1153
▁proper	-1154
▁econom	-1155
▁sever	-1156
▁early	-1157
▁Q	-1158
▁par	-1159
ource	-1160
▁method	-1161
▁better	-1162
▁old	-1163
▁ess	-1164
az	-1165
ern	-1166
▁move	-1167
▁program	-1168
▁anim	-1169
▁war	-1170
▁So	-1171
arc	-1172
ways	-1173
▁leg	-1174
▁government	-1175
hor	-1176
▁against	-1177
ision	-1178
▁Pl	-1179
ills	-1180
lished	-1181
▁mil	-1182
ik	-1183
▁keep	-1184
▁second	-1185
▁tre	-1186
ients	-1187
▁last	-1188
▁fore	-1189
▁real	-1190
▁here	-1191
▁—	-1192
▁history	-1193
ider	-1194
ware	-1195
▁oper	-1196
rist	-1197
▁cause	-1198
here	-1199
▁order	-1200
▁too	-1201
▁ele	-1202
str	-1203
▁means	-1204
▁infl	-1205
▁occur	-1206
▁major	-1207
▁avail	-1208
▁top	-1209
▁provide	-1210
rap	-1211
▁.	-1212
ories	-1213
▁group	-1214
▁ter	-1215
▁perform	-1216
▁Can	-1217
ission	-1218
ention	-1219
view	-1220
▁Col	-1221
▁indu	-1222
▁particular	-1223
ples	-1224
tt	-1225
ards	-1226
▁family	-1227
▁dev	-1228
icle	-1229
amp	-1230
▁United	-1231
▁current	-1232
▁possible	-1233
▁period	-1234
▁learning	-1235
▁invol	-1236
use	-1237
▁langu	-1238
▁addition	-1239
▁saf	-1240
▁hig	-1241
▁several	-1242
▁unt	-1243
ograph	-1244
▁fin	-1245
▁say	-1246
▁near	-1247
▁species	-1248
▁able	-1249
oid	-1250
▁mean	-1251
▁orig	-1252
par	-1253
▁percent	-1254
irc	-1255
▁signific	-1256
▁benef	-1257
▁Z	-1258
▁cal	-1259
▁happ	-1260
ote	-1261
▁men	-1262
▁bus	-1263
▁Comm	-1264
▁affect	-1265
▁God	-1266
▁plant	-1267
▁prom	-1268
ina	-1269
ogn	-1270
▁non	-1271
▁All	-1272
▁cost	-1273
▁open	-1274
idence	-1275
▁lim	-1276
▁since	-1277
▁feel	-1278
▁el	-1279
urop	-1280
▁things	-1281
▁scient	-1282
ator	-1283
▁One	-1284
sy	-1285
▁mar	-1286
▁among	-1287
ane	-1288
▁areas	-1289
▁En	-1290
ilar	-1291
▁says	-1292
▁Te	-1293
osp	-1294
▁treatment	-1295
▁others	-1296
ret	-1297
ole	-1298
▁country	-1299
though	-1300
ended	-1301
▁based	-1302
▁available	-1303
▁prevent	-1304
ends	-1305
▁head	-1306
aper	-1307
▁following	-1308
▁times	-1309
ling	-1310
ots	-1311
▁four	-1312
▁name	-1313
▁del	-1314
elf	-1315
▁fre	-1316
▁fac	-1317
ocus	-1318
▁cond	-1319
cing	-1320
▁States	-1321
ames	-1322
▁prop	-1323
▁access	-1324
ances	-1325
▁case	-1326
▁Some	-1327
▁Or	-1328
urther	-1329
▁wee	-1330
ably	-1331
▁With	-1332
ploy	-1333
une	-1334
▁free	-1335
▁certain	-1336
▁age	-1337
▁struct	-1338
▁come	-1339
to	-1340
▁month	-1341
▁lo	-1342
▁problem	-1343
sc	-1344
,"	-1345
ised	-1346
▁object	-1347
▁conn	-1348
▁list	-1349
▁lab	-1350
▁post	-1351
urope	-1352
▁type	-1353
▁bi	-1354
▁natural	-1355
▁run	-1356
▁view	-1357
▁press	-1358
oint	-1359
▁rece	-1360
ression	-1361
▁put	-1362
▁problems	-1363
olution	-1364
ww	-1365
be	-1366
ones	-1367
▁creat	-1368
▁intern	-1369
▁levels	-1370
▁success	-1371
br	-1372
▁gr	-1373
▁local	-1374
eg	-1375
▁bro	-1376
▁Cent	-1377
▁National	-1378
ggest	-1379
▁impact	-1380
▁hard	-1381
ope	-1382
▁amount	-1383
▁associ	-1384
▁vol	-1385
icult	-1386
▁little	-1387
▁significant	-1388
▁cells	-1389
▁bir	-1390
▁flow	-1391
▁book	-1392
▁mult	-1393
▁Af	-1394
work	-1395
ring	-1396
▁far	-1397
▁young	-1398
▁due	-1399
▁let	-1400
por	-1401
▁Fr	-1402
▁Christ	-1403
▁vir	-1404
resent	-1405
__	-1406
▁making	-1407
▁By	-1408
ething	-1409
▁Europe	-1410
atory	-1411
▁suggest	-1412
▁focus	-1413
▁later	-1414
▁until	-1415
▁short	-1416
ortun	-1417
▁turn	-1418
▁Bl	-1419
oks	-1420
ledge	-1421
ately	-1422
ides	-1423
▁given	-1424
uture	-1425
ither	-1426
▁sw	-1427
▁comput	-1428
▁Wor	-1429
▁behav	-1430
ication	-1431
▁cho	-1432
▁invest	-1433
stit	-1434
▁determ	-1435
ged	-1436
ured	-1437
yd	-1438
▁function	-1439
▁polit	-1440
▁US	-1441
omm	-1442
▁education	-1443
▁likely	-1444
▁days	-1445
▁rad	-1446
aken	-1447
▁systems	-1448
aps	-1449
▁seem	-1450
hem	-1451
▁circ	-1452
over	-1453
▁heart	-1454
agement	-1455
▁along	-1456
▁comb	-1457
cle	-1458
ead	-1459
face	-1460
▁obs	-1461
▁Med	-1462
not	-1463
▁increase	-1464
▁'	-1465
▁language	-1466
▁results	-1467
oph	-1468
▁appear	-1469
▁something	-1470
▁community	-1471
ried	-1472
▁fil	-1473
▁death	-1474
▁course	-1475
ending	-1476
▁usually	-1477
▁always	-1478
▁teac	-1479
▁technology	-1480
vious	-1481
orts	-1482
▁sing	-1483
pect	-1484
▁Ear	-1485
▁temper	-1486
▁consum	-1487
ohn	-1488
▁rele	-1489
▁specific	-1490
▁dra	-1491
▁past	-1492
ecially	-1493
▁difficult	-1494
aster	-1495
ape	-1496
▁clear	-1497
▁create	-1498
▁similar	-1499
▁author	-1500
▁$	-1501
▁enc	-1502
pr	-1503
▁effective	-1504
▁words	-1505
▁character	-1506
▁works	-1507
▁experience	-1508
etic	-1509
▁give	-1510
ember	-1511
▁conditions	-1512
▁That	-1513
▁ey	-1514
▁space	-1515
▁cr	-1516
▁parent	-1517
▁exist	-1518
▁needs	-1519
ators	-1520
asing	-1521
ned	-1522
▁ill	-1523
ptoms	-1524
▁today	-1525
▁century	-1526
▁population	-1527
▁record	-1528
▁million	-1529
▁why	-1530
ym	-1531
ours	-1532
▁crit	-1533
isc	-1534
▁profess	-1535
▁cancer	-1536
▁line	-1537
af	-1538
▁describ	-1539
▁brain	-1540
idd	-1541
▁various	-1542
▁future	-1543
especially	-1544
▁higher	-1545
obal	-1546
aining	-1547
▁special	-1548
▁discuss	-1549
▁across	-1550
▁dam	-1551
▁Brit	-1552
▁Afric	-1553
▁While	-1554
min	-1555
of	-1556
iation	-1557
▁applic	-1558
▁er	-1559
ribut	-1560
▁necess	-1561
rug	-1562
ruction	-1563
▁changes	-1564
▁above	-1565
ored	-1566
▁next	-1567
mit	-1568
▁begin	-1569
ysis	-1570
ler	-1571
▁countries	-1572
▁toget	-1573
▁strong	-1574
▁together	-1575
▁however	-1576
▁least	-1577
▁Im	-1578
ox	-1579
▁side	-1580
app	-1581
▁try	-1582
▁business	-1583
put	-1584
reen	-1585
▁require	-1586
▁mov	-1587
▁working	-1588
ique	-1589
▁ask	-1590
▁improve	-1591
▁respons	-1592
ilities	-1593
ateg	-1594
▁plants	-1595
▁kind	-1596
most	-1597
atch	-1598
▁effects	-1599
▁researc	-1600
▁complete	-1601
▁estab	-1602
ode	-1603
ray	-1604
▁never	-1605
▁patients	-1606
▁Dr	-1607
▁left	-1608
selves	-1609
▁John	-1610
▁mot	-1611
▁Ab	-1612
▁Gen	-1613
▁cy	-1614
aves	-1615
▁away	-1616
▁colle	-1617
▁ways	-1618
▁tool	-1619
oney	-1620
▁sens	-1621
amm	-1622
▁especially	-1623
sw	-1624
omes	-1625
▁term	-1626
▁enough	-1627
aces	-1628
acy	-1629
▁After	-1630
▁chem	-1631
▁key	-1632
▁prim	-1633
▁tru	-1634
▁team	-1635
▁net	-1636
▁studies	-1637
▁general	-1638
▁influ	-1639
ilt	-1640
nal	-1641
let	-1642
▁full	-1643
▁subject	-1644
▁having	-1645
ales	-1646
ument	-1647
▁relations	-1648
▁War	-1649
oot	-1650
ires	-1651
▁cases	-1652
▁consider	-1653
▁Germ	-1654
▁types	-1655
duct	-1656
alf	-1657
aching	-1658
thing	-1659
▁Go	-1660
acc	-1661
iting	-1662
lement	-1663
▁going	-1664
ush	-1665
port	-1666
aring	-1667
oman	-1668
▁Am	-1669
▁role	-1670
▁norm	-1671
▁lower	-1672
side	-1673
▁account	-1674
▁step	-1675
▁Ne	-1676
▁whether	-1677
ley	-1678
chie	-1679
▁knowledge	-1680
ges	-1681
▁World	-1682
▁physical	-1683
▁opt	-1684
▁symptoms	-1685
▁z	-1686
ipp	-1687
▁became	-1688
▁self	-1689
▁protect	-1690
▁concer	-1691
▁Stud	-1692
istic	-1693
▁English	-1694
▁represent	-1695
▁further	-1696
aim	-1697
▁mind	-1698
ae	-1699
▁pred	-1700
ann	-1701
ready	-1702
▁Health	-1703
▁reason	-1704
▁sum	-1705
▁polic	-1706
ued	-1707
▁house	-1708
▁Car	-1709
▁production	-1710
▁makes	-1711
apt	-1712
▁ground	-1713
ification	-1714
NA	-1715
ency	-1716
▁city	-1717
▁wr	-1718
▁science	-1719
ables	-1720
▁paper	-1721
▁Tr	-1722
▁mic	-1723
▁She	-1724
itor	-1725
▁live	-1726
▁big	-1727
atures	-1728
▁chall	-1729
▁ens	-1730
ung	-1731
▁Mar	-1732
ery	-1733
▁question	-1734
▁range	-1735
sych	-1736
ott	-1737
//	-1738
▁fund	-1739
cul	-1740
▁text	-1741
▁Resear	-1742
▁dig	-1743
eds	-1744
▁toward	-1745
▁value	-1746
▁model	-1747
ites	-1748
▁sure	-1749
▁growth	-1750
...	-1751
edi	-1752
▁Do	-1753
▁indic	-1754
▁activity	-1755
▁Ge	-1756
▁employ	-1757
▁nut	-1758
▁seen	-1759
▁Intern	-1760
aut	-1761
iol	-1762
ibility	-1763
bon	-1764
verage	-1765
lo	-1766
ird	-1767
▁already	-1768
▁potential	-1769
▁eff	-1770
▁quality	-1771
▁groups	-1772
▁activities	-1773
urch	-1774
iple	-1775
ream	-1776
▁loss	-1777
for	-1778
by	-1779
▁below	-1780
▁story	-1781
▁really	-1782
uation	-1783
▁Pr	-1784
▁lot	-1785
▁fall	-1786
▁done	-1787
▁word	-1788
▁stat	-1789
▁wind	-1790
▁close	-1791
▁offic	-1792
osis	-1793
▁particip	-1794
augh	-1795
▁resources	-1796
▁products	-1797
erence	-1798
▁developed	-1799
▁field	-1800
mber	-1801
▁rather	-1802
rel	-1803
etimes	-1804
oura	-1805
://	-1806
▁recogn	-1807
▁diet	-1808
ee	-1809
fact	-1810
▁Cal	-1811
ils	-1812
ands	-1813
▁according	-1814
▁achie	-1815
▁mass	-1816
▁either	-1817
▁neg	-1818
▁Acc	-1819
overed	-1820
esc	-1821
▁indust	-1822
▁deg	-1823
iam	-1824
▁single	-1825
▁abs	-1826
unt	-1827
▁May	-1828
▁South	-1829
▁prob	-1830
▁event	-1831
▁skills	-1832
ival	-1833
▁reduce	-1834
▁source	-1835
▁climate	-1836
▁building	-1837
▁phot	-1838
▁ur	-1839
▁bat	-1840
ison	-1841
idered	-1842
▁tradition	-1843
▁surface	-1844
▁observ	-1845
▁national	-1846
▁=	-1847
leep	-1848
▁flu	-1849
▁rate	-1850
wh	-1851
yl	-1852
▁North	-1853
▁site	-1854
amin	-1855
▁drug	-1856
▁concept	-1857
▁medical	-1858
▁five	-1859
▁init	-1860
ask	-1861
▁article	-1862
▁once	-1863
▁introdu	-1864
▁researchers	-1865
▁issues	-1866
yn	-1867
val	-1868
▁taken	-1869
▁red	-1870
▁collect	-1871
rams	-1872
▁evidence	-1873
▁whole	-1874
▁recomm	-1875
eter	-1876
▁fr	-1877
ivil	-1878
urity	-1879
rict	-1880
▁questions	-1881
▁tot	-1882
▁America	-1883
▁Cont	-1884
▁address	-1885
▁Ass	-1886
▁fail	-1887
▁dom	-1888
ivity	-1889
▁considered	-1890
▁ann	-1891
▁cut	-1892
ule	-1893
▁Man	-1894
▁frequ	-1895
▁white	-1896
rect	-1897
▁size	-1898
▁meet	-1899
fer	-1900
ER	-1901
fficient	-1902
▁members	-1903
▁upon	-1904
▁Rep	-1905
▁associated	-1906
▁pressure	-1907
ublic	-1908
▁sun	-1909
▁sent	-1910
▁ver	-1911
▁detail	-1912
▁doct	-1913
▁created	-1914
roll	-1915
▁Many	-1916
reme	-1917
ips	-1918
▁wide	-1919
▁relig	-1920
▁increased	-1921
▁nature	-1922
▁fri	-1923
▁skin	-1924
▁market	-1925
▁themselves	-1926
▁tell	-1927
▁repl	-1928
▁came	-1929
▁sal	-1930
▁political	-1931
▁hold	-1932
▁Soc	-1933
▁pay	-1934
▁living	-1935
epend	-1936
▁stress	-1937
ights	-1938
▁states	-1939
▁animals	-1940
▁histor	-1941
▁return	-1942
illed	-1943
▁sound	-1944
▁dest	-1945
▁cannot	-1946
ensive	-1947
▁practice	-1948
▁Aust	-1949
▁understanding	-1950
ournal	-1951
▁actually	-1952
▁required	-1953
▁Act	-1954
▁No	-1955
▁related	-1956
▁simple	-1957
▁opportun	-1958
▁lay	-1959
reg	-1960
▁relationship	-1961
▁Hist	-1962
ober	-1963
aced	-1964
sequ	-1965
▁week	-1966
ibr	-1967
▁black	-1968
org	-1969
▁Pe	-1970
▁adult	-1971
ety	-1972
utions	-1973
▁engine	-1974
▁His	-1975
▁entire	-1976
▁needed	-1977
▁purp	-1978
▁healthy	-1979
itud	-1980
▁materials	-1981
ening	-1982
▁Dep	-1983
▁global	-1984
like	-1985
▁ability	-1986
▁analysis	-1987
▁economic	-1988
enn	-1989
▁published	-1990
▁maint	-1991
▁quick	-1992
▁thought	-1993
▁complex	-1994
ications	-1995
▁condition	-1996
▁arg	-1997
▁Gu	-1998
▁modern	-1999
▁prote	-2000
▁Fl	-2001
▁famil	-2002
▁student	-2003
▁port	-2004
▁comes	-2005
oon	-2006
sh	-2007
▁doc	-2008
▁parts	-2009
▁writing	-2010
▁fat	-2011
▁factors	-2012
aging	-2013
▁answ	-2014
▁idea	-2015
▁experien	-2016
▁fish	-2017
▁provides	-2018
".	-2019
acks	-2020
ai	-2021
▁almost	-2022
▁Em	-2023
artment	-2024
▁oil	-2025
▁exerc	-2026
▁services	-2027
▁htt	-2028
▁itself	-2029
AS	-2030
▁avoid	-2031
▁X	-2032
ging	-2033
ump	-2034
▁vers	-2035
▁management	-2036
hib	-2037
chan	-2038
eb	-2039
hing	-2040
aged	-2041
▁dog	-2042
▁Earth	-2043
▁Co	-2044
ened	-2045
ney	-2046
▁cat	-2047
oses	-2048
lying	-2049
▁York	-2050
▁Most	-2051
▁money	-2052
vere	-2053
▁assess	-2054
▁mor	-2055
.)	-2056
gest	-2057
▁months	-2058
▁react	-2059
itary	-2060
▁weight	-2061
▁coll	-2062
rad	-2063
▁rights	-2064
mon	-2065
▁path	-2066
▁necessary	-2067
▁approach	-2068
▁arch	-2069
erve	-2070
▁sam	-2071
▁More	-2072
▁State	-2073
ences	-2074
go	-2075
▁suff	-2076
▁half	-2077
▁measure	-2078
ores	-2079
▁gas	-2080
):	-2081
▁super	-2082
▁soil	-2083
▁bar	-2084
urs	-2085
uel	-2086
▁liter	-2087
▁produce	-2088
bo	-2089
eding	-2090
ystem	-2091
▁parents	-2092
olic	-2093
▁link	-2094
ply	-2095
▁took	-2096
usion	-2097
▁began	-2098
izing	-2099
▁priv	-2100
▁Su	-2101
▁soft	-2102
▁arr	-2103
▁ever	-2104
▁green	-2105
▁conduct	-2106
▁Although	-2107
based	-2108
▁tar	-2109
▁Research	-2110
▁personal	-2111
onse	-2112
▁job	-2113
▁computer	-2114
abor	-2115
emic	-2116
irm	-2117
▁emer	-2118
rown	-2119
nces	-2120
▁pattern	-2121
▁individuals	-2122
▁region	-2123
▁separ	-2124
▁Here	-2125
▁throughout	-2126
▁princ	-2127
▁chemical	-2128
ese	-2129
▁ge	-2130
iddle	-2131
▁stop	-2132
▁British	-2133
iction	-2134
▁color	-2135
▁popular	-2136
▁reading	-2137
▁yet	-2138
ma	-2139
ume	-2140
ections	-2141
utes	-2142
▁cop	-2143
abit	-2144
▁farm	-2145
▁society	-2146
igure	-2147
▁shows	-2148
▁regard	-2149
▁Jew	-2150
▁increasing	-2151
▁action	-2152
oll	-2153
▁online	-2154
▁taking	-2155
pid	-2156
▁fire	-2157
▁therap	-2158
ze	-2159
▁claim	-2160
empt	-2161
▁anc	-2162
ID	-2163
erous	-2164
▁bur	-2165
▁win	-2166
▁company	-2167
apan	-2168
▁recent	-2169
my	-2170
▁rul	-2171
▁total	-2172
▁ut	-2173
▁sense	-2174
▁According	-2175
▁previous	-2176
▁longer	-2177
▁clean	-2178
hold	-2179
▁content	-2180
▁structure	-2181
▁temperature	-2182
▁sleep	-2183
ising	-2184
▁interact	-2185
ript	-2186
yle	-2187
estern	-2188
▁Canad	-2189
▁industry	-2190
▁Me	-2191
▁la	-2192
anced	-2193
▁built	-2194
▁training	-2195
ches	-2196
▁terms	-2197
▁service	-2198
ively	-2199
uck	-2200
▁inj	-2201
▁deb	-2202
▁six	-2203
icles	-2204
▁position	-2205
▁diagn	-2206
pro	-2207
itation	-2208
▁caused	-2209
▁Per	-2210
het	-2211
▁talk	-2212
▁Par	-2213
▁School	-2214
iment	-2215
▁Pre	-2216
▁behavior	-2217
▁hours	-2218
reng	-2219
▁schools	-2220
▁matter	-2221
▁environmental	-2222
▁heat	-2223
▁causes	-2224
ES	-2225
▁heav	-2226
▁travel	-2227
astic	-2228
▁surv	-2229
▁Sec	-2230
▁mach	-2231
lt	-2232
▁sat	-2233
▁break	-2234
▁conc	-2235
▁rev	-2236
▁disord	-2237
▁Your	-2238
▁Other	-2239
ns	-2240
▁Int	-2241
▁Instit	-2242
ulations	-2243
▁benefits	-2244
▁meaning	-2245
▁ce	-2246
minist	-2247
▁contact	-2248
fully	-2249
▁sex	-2250
aily	-2251
▁lives	-2252
▁App	-2253
▁Qu	-2254
▁positive	-2255
▁vari	-2256
▁CO	-2257
▁shown	-2258
▁check	-2259
▁thing	-2260
▁provided	-2261
▁II	-2262
▁spread	-2263
▁easy	-2264
vey	-2265
▁etc	-2266
AT	-2267
istance	-2268
lex	-2269
▁India	-2270
▁contain	-2271
ows	-2272
▁ste	-2273
ricult	-2274
▁bring	-2275
▁safe	-2276
ene	-2277
▁From	-2278
▁true	-2279
▁Japan	-2280
▁Will	-2281
▁Comp	-2282
▁prec	-2283
inary	-2284
hood	-2285
▁designed	-2286
ropri	-2287
aff	-2288
istics	-2289
▁bacter	-2290
▁includes	-2291
▁methods	-2292
▁fru	-2293
▁wild	-2294
▁accept	-2295
ronic	-2296
▁average	-2297
▁regular	-2298
▁vide	-2299
▁Pres	-2300
ufact	-2301
asc	-2302
ederal	-2303
lands	-2304
gar	-2305
aving	-2306
▁standard	-2307
ster	-2308
mb	-2309
AR	-2310
rought	-2311
▁fem	-2312
▁led	-2313
ister	-2314
▁deep	-2315
▁relative	-2316
▁lif	-2317
▁viol	-2318
▁mechan	-2319
▁review	-2320
▁Us	-2321
▁Of	-2322
ched	-2323
▁carbon	-2324
▁earth	-2325
▁subst	-2326
▁response	-2327
▁target	-2328
▁variety	-2329
▁movement	-2330
▁Ed	-2331
▁poll	-2332
imately	-2333
ades	-2334
▁King	-2335
▁simply	-2336
rior	-2337
▁greater	-2338
ners	-2339
▁love	-2340
▁believe	-2341
▁issue	-2342
▁eat	-2343
▁original	-2344
aries	-2345
▁slow	-2346
▁sometimes	-2347
▁origin	-2348
▁music	-2349
atives	-2350
▁reported	-2351
rast	-2352
abet	-2353
▁culture	-2354
▁compl	-2355
▁exc	-2356
▁Not	-2357
▁psych	-2358
▁face	-2359
verse	-2360
▁helps	-2361
▁scientists	-2362
▁threat	-2363
▁--	-2364
▁written	-2365
▁compan	-2366
amed	-2367
▁Rec	-2368
▁programs	-2369
▁Part	-2370
▁•	-2371
▁uses	-2372
▁streng	-2373
▁events	-2374
ength	-2375
▁damage	-2376
▁Science	-2377
eration	-2378
▁involved	-2379
▁respect	-2380
rench	-2381
▁doing	-2382
▁Min	-2383
aling	-2384
▁identify	-2385
dom	-2386
▁remov	-2387
▁Cons	-2388
▁sources	-2389
arily	-2390
▁demon	-2391
▁micro	-2392
osition	-2393
▁normal	-2394
▁encoura	-2395
▁Austral	-2396
duc	-2397
icine	-2398
ials	-2399
▁outside	-2400
▁foods	-2401
know	-2402
▁compet	-2403
ban	-2404
▁,	-2405
▁compon	-2406
▁integ	-2407
▁electric	-2408
ucle	-2409
▁tax	-2410
▁particularly	-2411
▁image	-2412
▁emot	-2413
▁camp	-2414
aches	-2415
▁poor	-2416
oor	-2417
elling	-2418
ender	-2419
▁forms	-2420
rand	-2421
new	-2422
light	-2423
▁bal	-2424
▁pict	-2425
▁cust	-2426
▁ensure	-2427
▁Ag	-2428
▁lack	-2429
▁virus	-2430
▁i	-2431
▁attention	-2432
▁essential	-2433
▁Gl	-2434
▁Har	-2435
uge	-2436
▁produced	-2437
▁forest	-2438
▁ple	-2439
hel	-2440
ises	-2441
▁basic	-2442
ctions	-2443
▁developing	-2444
▁challeng	-2445
▁generally	-2446
▁page	-2447
▁extreme	-2448
▁China	-2449
▁refer	-2450
rie	-2451
idge	-2452
▁growing	-2453
umb	-2454
▁emb	-2455
▁force	-2456
▁ox	-2457
▁displ	-2458
▁late	-2459
ops	-2460
▁webs	-2461
▁implement	-2462
▁Jan	-2463
▁serious	-2464
▁First	-2465
▁lat	-2466
▁feet	-2467
▁sust	-2468
▁aff	-2469
▁attempt	-2470
oles	-2471
▁Now	-2472
▁appl	-2473
▁harm	-2474
▁Count	-2475
rated	-2476
room	-2477
▁ap	-2478
ief	-2479
▁log	-2480
▁network	-2481
▁teachers	-2482
ached	-2483
▁numbers	-2484
▁share	-2485
▁select	-2486
ervation	-2487
▁Bec	-2488
▁Ke	-2489
▁Our	-2490
son	-2491
▁consist	-2492
--	-2493
osure	-2494
▁coun	-2495
▁patient	-2496
▁squ	-2497
▁During	-2498
issions	-2499
▁animal	-2500
▁included	-2501
▁manufact	-2502
▁defin	-2503
▁vacc	-2504
▁visit	-2505
▁correct	-2506
▁wood	-2507
▁attack	-2508
▁Bo	-2509
bor	-2510
▁doesn	-2511
▁hyd	-2512
▁El	-2513
ems	-2514
▁independ	-2515
osing	-2516
▁draw	-2517
▁aware	-2518
▁Ac	-2519
▁safety	-2520
ads	-2521
▁magn	-2522
▁ir	-2523
▁continue	-2524
▁probably	-2525
isions	-2526
▁Art	-2527
▁ideas	-2528
ming	-2529
▁series	-2530
fect	-2531
▁getting	-2532
▁Ju	-2533
▁Sm	-2534
▁takes	-2535
▁Child	-2536
▁mess	-2537
raft	-2538
ography	-2539
▁Aug	-2540
▁kids	-2541
▁therefore	-2542
▁night	-2543
rim	-2544
ana	-2545
▁dou	-2546
ribution	-2547
▁print	-2548
imum	-2549
▁prep	-2550
▁/	-2551
▁media	-2552
▁express	-2553
eed	-2554
set	-2555
▁financ	-2556
▁Educ	-2557
▁veget	-2558
▁My	-2559
▁policy	-2560
▁easily	-2561
ties	-2562
uth	-2563
irit	-2564
IS	-2565
ground	-2566
▁concent	-2567
▁colon	-2568
cies	-2569
▁someone	-2570
▁daily	-2571
▁Tw	-2572
▁international	-2573
▁performance	-2574
Th	-2575
▁commit	-2576
▁investig	-2577
▁thus	-2578
▁cover	-2579
ided	-2580
▁theory	-2581
▁mother	-2582
vention	-2583
▁looking	-2584
▁fa	-2585
oly	-2586
▁sea	-2587
▁earl	-2588
▁primary	-2589
▁difference	-2590
IN	-2591
▁cit	-2592
iot	-2593
▁estim	-2594
ha	-2595
▁mental	-2596
▁quite	-2597
▁leaders	-2598
▁wall	-2599
▁started	-2600
▁bab	-2601
▁cross	-2602
▁European	-2603
ension	-2604
▁ago	-2605
rs	-2606
haps	-2607
ino	-2608
▁allows	-2609
▁added	-2610
ius	-2611
rew	-2612
▁instead	-2613
uary	-2614
▁ful	-2615
iency	-2616
▁traditional	-2617
▁diseases	-2618
▁town	-2619
asons	-2620
▁sil	-2621
▁Center	-2622
overy	-2623
▁civil	-2624
▁warm	-2625
▁vit	-2626
▁dang	-2627
▁appropri	-2628
▁decre	-2629
▁communities	-2630
▁eth	-2631
ancy	-2632
ror	-2633
erg	-2634
▁instit	-2635
▁determine	-2636
itude	-2637
▁compared	-2638
▁capt	-2639
▁tree	-2640
▁books	-2641
na	-2642
▁Indian	-2643
▁div	-2644
erson	-2645
▁Since	-2646
▁Tra	-2647
▁sold	-2648
▁thous	-2649
▁tools	-2650
▁tiss	-2651
▁inside	-2652
ington	-2653
▁tur	-2654
▁Even	-2655
▁offer	-2656
▁progress	-2657
▁multiple	-2658
▁achieve	-2659
▁hy	-2660
ying	-2661
▁eval	-2662
▁points	-2663
▁nation	-2664
▁Sch	-2665
cell	-2666
▁French	-2667
▁fav	-2668
▁tend	-2669
▁Calif	-2670
▁scientific	-2671
▁reflect	-2672
▁rout	-2673
▁held	-2674
▁companies	-2675
▁Reg	-2676
inks	-2677
▁humans	-2678
▁reve	-2679
▁sou	-2680
▁quickly	-2681
▁unique	-2682
▁larger	-2683
rate	-2684
▁established	-2685
where	-2686
▁immedi	-2687
▁feed	-2688
▁eye	-2689
▁answer	-2690
▁third	-2691
▁military	-2692
▁directly	-2693
▁infection	-2694
cil	-2695
▁Jes	-2696
▁altern	-2697
▁trees	-2698
▁highly	-2699
▁Lear	-2700
ls	-2701
ounds	-2702
ellow	-2703
▁essay	-2704
ille	-2705
▁March	-2706
▁critical	-2707
▁Oct	-2708
▁demonstr	-2709
▁dry	-2710
pril	-2711
▁speak	-2712
ift	-2713
term	-2714
▁Institute	-2715
▁acid	-2716
anks	-2717
▁Her	-2718
▁document	-2719
▁additional	-2720
▁Char	-2721
▁negative	-2722
▁Department	-2723
useum	-2724
▁West	-2725
elt	-2726
nov	-2727
▁severe	-2728
▁although	-2729
▁Ant	-2730
iers	-2731
▁front	-2732
▁gard	-2733
icated	-2734
▁exercise	-2735
▁birth	-2736
▁Californ	-2737
abetes	-2738
undred	-2739
▁bit	-2740
▁behind	-2741
olar	-2742
▁drink	-2743
▁active	-2744
▁solar	-2745
▁write	-2746
▁security	-2747
▁proced	-2748
www	-2749
▁extra	-2750
▁analy	-2751
▁Africa	-2752
▁aspect	-2753
▁clin	-2754
▁History	-2755
▁soon	-2756
iques	-2757
▁Why	-2758
▁bad	-2759
▁central	-2760
▁har	-2761
▁Russ	-2762
▁prior	-2763
cean	-2764
▁Read	-2765
▁host	-2766
joy	-2767
▁families	-2768
▁towards	-2769
▁hor	-2770
▁broad	-2771
▁leading	-2772
▁tri	-2773
▁German	-2774
▁aud	-2775
aly	-2776
pe	-2777
ulate	-2778
▁foot	-2779
gency	-2780
▁purpose	-2781
itis	-2782
▁aim	-2783
vant	-2784
arr	-2785
▁Br	-2786
▁quant	-2787
▁values	-2788
att	-2789
▁obt	-2790
▁supply	-2791
omet	-2792
▁stay	-2793
thern	-2794
▁California	-2795
▁labor	-2796
▁walk	-2797
▁doctor	-2798
▁Ret	-2799
▁useful	-2800
AN	-2801
▁International	-2802
▁went	-2803
▁shall	-2804
▁Sept	-2805
▁hot	-2806
▁beginning	-2807
▁Inc	-2808
▁June	-2809
▁Cor	-2810
▁custom	-2811
▁fram	-2812
▁protein	-2813
den	-2814
▁accur	-2815
isms	-2816
We	-2817
yond	-2818
uries	-2819
▁stra	-2820
▁African	-2821
▁expect	-2822
▁Mus	-2823
▁teaching	-2824
▁situation	-2825
▁seems	-2826
▁decl	-2827
oes	-2828
▁habit	-2829
▁Sw	-2830
▁card	-2831
▁limited	-2832
▁http	-2833
▁Because	-2834
▁whose	-2835
fl	-2836
▁video	-2837
hern	-2838
▁impl	-2839
▁August	-2840
▁Mon	-2841
▁features	-2842
▁hands	-2843
▁elements	-2844
▁contribut	-2845
ilos	-2846
▁Sim	-2847
▁transport	-2848
mar	-2849
OR	-2850
ON	-2851
▁Bar	-2852
____	-2853
formation	-2854
▁capital	-2855
▁influence	-2856
▁software	-2857
▁mount	-2858
rition	-2859
▁*	-2860
▁ones	-2861
yr	-2862
▁search	-2863
▁base	-2864
▁fight	-2865
▁Dav	-2866
oming	-2867
▁workers	-2868
▁Gree	-2869
▁section	-2870
oring	-2871
▁April	-2872
itch	-2873
iber	-2874
▁lost	-2875
▁pack	-2876
▁strateg	-2877
▁thinking	-2878
▁contains	-2879
▁Then	-2880
rogen	-2881
▁financial	-2882
▁ancient	-2883
bol	-2884
▁requires	-2885
▁minutes	-2886
▁length	-2887
iter	-2888
gn	-2889
▁mom	-2890
▁application	-2891
lection	-2892
uman	-2893
▁rates	-2894
▁exact	-2895
cial	-2896
▁ang	-2897
hens	-2898
▁block	-2899
▁unc	-2900
▁dark	-2901
▁mill	-2902
▁fast	-2903
inct	-2904
▁nucle	-2905
▁waste	-2906
▁jo	-2907
▁x	-2908
▁interp	-2909
ext	-2910
▁Jesus	-2911
”.	-2912
pper	-2913
hest	-2914
fort	-2915
▁Also	-2916
istry	-2917
▁stri	-2918
▁July	-2919
ription	-2920
▁hundred	-2921
uk	-2922
▁received	-2923
▁protection	-2924
ologies	-2925
▁Mc	-2926
▁news	-2927
▁largest	-2928
▁River	-2929
▁described	-2930
coh	-2931
▁administ	-2932
▁costs	-2933
imin	-2934
▁else	-2935
ields	-2936
▁capac	-2937
▁importance	-2938
▁enjoy	-2939
▁adults	-2940
▁got	-2941
▁weeks	-2942
▁jud	-2943
wise	-2944
▁Wash	-2945
rote	-2946
▁brought	-2947
▁demand	-2948
▁William	-2949
▁except	-2950
▁devices	-2951
orthern	-2952
▁sustain	-2953
▁wa	-2954
▁private	-2955
▁disp	-2956
▁north	-2957
▁images	-2958
IC	-2959
▁veh	-2960
▁Serv	-2961
▁solution	-2962
▁bacteria	-2963
▁cred	-2964
ipment	-2965
▁carry	-2966
▁nearly	-2967
▁processes	-2968
cks	-2969
▁agricult	-2970
▁ord	-2971
▁decision	-2972
▁lines	-2973
▁Fin	-2974
▁sn	-2975
▁ult	-2976
▁stru	-2977
izations	-2978
ulated	-2979
▁leaves	-2980
equ	-2981
▁fit	-2982
▁becomes	-2983
▁goal	-2984
▁speed	-2985
▁Over	-2986
▁located	-2987
▁places	-2988
▁table	-2989
▁Let	-2990
▁agree	-2991
imal	-2992
▁ep	-2993
▁Press	-2994
▁mole	-2995
ipl	-2996
▁adop	-2997
▁tests	-2998
vest	-2999
mission	-3000
▁respond	-3001
▁memory	-3002
used	-3003
odies	-3004
▁season	-3005
▁website	-3006
▁rare	-3007
▁game	-3008
idents	-3009
▁sites	-3010
▁reach	-3011
▁communication	-3012
▁remain	-3013
uous	-3014
▁projects	-3015
▁remains	-3016
▁Americans	-3017
▁adapt	-3018
▁President	-3019
▁techniques	-3020
▁England	-3021
▁told	-3022
▁establish	-3023
rag	-3024
▁Associ	-3025
▁typically	-3026
iles	-3027
▁appropriate	-3028
sect	-3029
ibrary	-3030
see	-3031
▁rapid	-3032
In	-3033
rael	-3034
entially	-3035
▁People	-3036
▁Day	-3037
▁laws	-3038
▁adj	-3039
▁Ec	-3040
▁Christian	-3041
▁mention	-3042
▁eyes	-3043
▁deal	-3044
▁born	-3045
▁crop	-3046
IV	-3047
bit	-3048
▁property	-3049
▁testing	-3050
▁Techn	-3051
year	-3052
itect	-3053
▁Are	-3054
▁surround	-3055
▁mix	-3056
lim	-3057
▁religious	-3058
▁efforts	-3059
▁friends	-3060
▁egg	-3061
▁install	-3062
izes	-3063
▁south	-3064
▁beaut	-3065
▁Canada	-3066
▁basis	-3067
▁summer	-3068
▁Trans	-3069
▁:	-3070
▁cultural	-3071
▁transl	-3072
▁behavi	-3073
▁Govern	-3074
come	-3075
▁High	-3076
▁accom	-3077
▁advant	-3078
▁Prog	-3079
▁creating	-3080
▁cool	-3081
iece	-3082
▁Just	-3083
▁gives	-3084
▁Inst	-3085
▁vict	-3086
inese	-3087
▁Another	-3088
oke	-3089
ica	-3090
AC	-3091
oud	-3092
▁father	-3093
▁Dis	-3094
▁applications	-3095
ceed	-3096
▁Use	-3097
king	-3098
EN	-3099
▁eating	-3100
▁construction	-3101
resh	-3102
▁himself	-3103
▁teeth	-3104
med	-3105
ondon	-3106
▁breat	-3107
▁dead	-3108
atur	-3109
▁Red	-3110
▁citiz	-3111
estic	-3112
ford	-3113
▁died	-3114
▁Education	-3115
▁cold	-3116
▁Each	-3117
▁final	-3118
▁anti	-3119
▁teacher	-3120
▁stage	-3121
It	-3122
▁Mod	-3123
ony	-3124
▁Cong	-3125
▁September	-3126
▁sugar	-3127
ype	-3128
▁command	-3129
aul	-3130
▁saw	-3131
▁pan	-3132
▁center	-3133
itable	-3134
▁Park	-3135
▁cam	-3136
▁der	-3137
cember	-3138
ogen	-3139
head	-3140
▁IS	-3141
▁miles	-3142
uments	-3143
arian	-3144
▁monitor	-3145
ham	-3146
▁fuel	-3147
▁calcul	-3148
▁examples	-3149
cles	-3150
▁Great	-3151
▁Sur	-3152
▁king	-3153
▁room	-3154
▁expected	-3155
ED	-3156
life	-3157
▁therapy	-3158
▁cou	-3159
▁Pol	-3160
▁trade	-3161
▁Church	-3162
▁cele	-3163
▁anything	-3164
iar	-3165
ding	-3166
▁hope	-3167
▁affected	-3168
▁coast	-3169
▁January	-3170
ellig	-3171
▁Develop	-3172
illing	-3173
▁everything	-3174
▁und	-3175
▁device	-3176
▁gradu	-3177
▁autom	-3178
▁depend	-3179
▁reasons	-3180
cohol	-3181
▁October	-3182
▁practices	-3183
▁recently	-3184
▁responsible	-3185
▁sequ	-3186
▁son	-3187
▁digital	-3188
▁Feb	-3189
▁benefit	-3190
▁hous	-3191
▁middle	-3192
strial	-3193
▁cru	-3194
▁Pat	-3195
▁imag	-3196
▁code	-3197
▁nothing	-3198
back	-3199
ira	-3200
▁Journal	-3201
▁followed	-3202
▁web	-3203
▁Once	-3204
▁equipment	-3205
eal	-3206
▁beyond	-3207
▁Commun	-3208
aught	-3209
bur	-3210
▁bott	-3211
▁forces	-3212
▁Washington	-3213
▁legal	-3214
▁Bi	-3215
▁hyp	-3216
water	-3217
▁pen	-3218
▁yourself	-3219
▁professional	-3220
▁consequ	-3221
▁older	-3222
▁connect	-3223
▁receive	-3224
▁screen	-3225
ama	-3226
▁ice	-3227
ovember	-3228
▁Israel	-3229
▁bul	-3230
▁models	-3231
▁Prof	-3232
▁City	-3233
▁controll	-3234
▁objects	-3235
apter	-3236
mosp	-3237
▁conflic	-3238
▁ten	-3239
▁economy	-3240
ari	-3241
▁exposure	-3242
▁mid	-3243
▁opportunity	-3244
▁providing	-3245
ico	-3246
▁choose	-3247
▁spirit	-3248
wor	-3249
▁rock	-3250
unch	-3251
▁date	-3252
ran	-3253
▁cra	-3254
▁Chinese	-3255
▁asked	-3256
ribute	-3257
▁enh	-3258
▁guid	-3259
▁fear	-3260
load	-3261
ought	-3262
ula	-3263
▁tit	-3264
▁recommend	-3265
▁System	-3266
▁overall	-3267
▁weather	-3268
▁diabetes	-3269
▁occurs	-3270
▁sett	-3271
▁smaller	-3272
▁Water	-3273
▁strength	-3274
iples	-3275
▁currently	-3276
▁insp	-3277
▁pregn	-3278
▁federal	-3279
▁Arch	-3280
uff	-3281
▁rain	-3282
▁organization	-3283
▁Vir	-3284
oe	-3285
▁rise	-3286
▁completely	-3287
▁location	-3288
▁shape	-3289
ospital	-3290
▁degree	-3291
▁via	-3292
▁wrote	-3293
▁differences	-3294
▁constit	-3295
▁alone	-3296
▁everyone	-3297
isl	-3298
aid	-3299
▁measures	-3300
▁woman	-3301
ests	-3302
time	-3303
sec	-3304
vert	-3305
▁won	-3306
▁scale	-3307
rees	-3308
▁beg	-3309
▁trying	-3310
▁standards	-3311
▁predict	-3312
airs	-3313
▁rob	-3314
▁instru	-3315
▁Black	-3316
▁swe	-3317
IT	-3318
▁constant	-3319
▁Cur	-3320
PA	-3321
▁successful	-3322
ech	-3323
▁visual	-3324
tery	-3325
▁earlier	-3326
▁London	-3327
▁drugs	-3328
anish	-3329
▁commonly	-3330
enge	-3331
ensity	-3332
▁December	-3333
▁County	-3334
▁joint	-3335
▁pet	-3336
▁rules	-3337
icate	-3338
amic	-3339
▁collection	-3340
▁purch	-3341
book	-3342
▁birds	-3343
▁winter	-3344
▁goes	-3345
▁ball	-3346
omb	-3347
▁effort	-3348
▁former	-3349
▁East	-3350
▁reduced	-3351
▁named	-3352
▁billion	-3353
▁Under	-3354
▁isn	-3355
con	-3356
▁Don	-3357
▁Tod	-3358
▁virt	-3359
▁DNA	-3360
▁Val	-3361
▁See	-3362
▁Mex	-3363
▁leave	-3364
▁maintain	-3365
wide	-3366
▁approx	-3367
▁allowed	-3368
men	-3369
▁Cour	-3370
▁placed	-3371
▁file	-3372
▁users	-3373
▁exec	-3374
aur	-3375
);	-3376
▁electr	-3377
▁max	-3378
rick	-3379
▁interesting	-3380
mitted	-3381
▁perfect	-3382
▁categ	-3383
▁genetic	-3384
▁steps	-3385
▁General	-3386
lin	-3387
▁occup	-3388
iest	-3389
▁applied	-3390
▁Law	-3391
▁sch	-3392
▁identified	-3393
▁historical	-3394
▁hon	-3395
▁member	-3396
▁discovered	-3397
▁November	-3398
▁neigh	-3399
▁user	-3400
▁planet	-3401
▁acqu	-3402
ocr	-3403
▁commerc	-3404
hy	-3405
▁enter	-3406
▁track	-3407
▁poly	-3408
ocks	-3409
▁rich	-3410
rieved	-3411
▁destro	-3412
ingu	-3413
▁context	-3414
▁fruit	-3415
▁display	-3416
▁powerful	-3417
▁gold	-3418
▁immune	-3419
bre	-3420
ste	-3421
▁mob	-3422
co	-3423
ara	-3424
▁road	-3425
▁continued	-3426
iable	-3427
irection	-3428
▁tox	-3429
▁Aut	-3430
▁mis	-3431
▁majority	-3432
▁Thus	-3433
uit	-3434
▁coming	-3435
▁sect	-3436
▁showed	-3437
▁eight	-3438
▁Roman	-3439
ibly	-3440
reet	-3441
▁church	-3442
▁rule	-3443
▁formed	-3444
▁compar	-3445
▁presence	-3446
▁San	-3447
que	-3448
▁den	-3449
▁properties	-3450
ords	-3451
▁Their	-3452
rig	-3453
▁acad	-3454
ruary	-3455
▁fair	-3456
oration	-3457
▁status	-3458
enty	-3459
aled	-3460
hemat	-3461
▁machine	-3462
alt	-3463
▁miss	-3464
▁bra	-3465
▁signs	-3466
▁limit	-3467
▁wond	-3468
▁pow	-3469
▁Coun	-3470
▁Conf	-3471
▁version	-3472
▁+	-3473
aters	-3474
ss	-3475
▁teach	-3476
edom	-3477
▁capacity	-3478
▁gave	-3479
bl	-3480
ament	-3481
▁Prot	-3482
▁mig	-3483
▁increases	-3484
▁nutri	-3485
▁philos	-3486
edia	-3487
▁mouth	-3488
▁patterns	-3489
▁illness	-3490
▁symbol	-3491
▁cook	-3492
ocol	-3493
▁factor	-3494
▁assign	-3495
▁cry	-3496
▁situ	-3497
▁perhaps	-3498
▁asse	-3499
rab	-3500
gery	-3501
ogle	-3502
▁rat	-3503
▁Every	-3504
▁strugg	-3505
▁cities	-3506
known	-3507
▁Ro	-3508
▁gir	-3509
cious	-3510
▁remember	-3511
▁Children	-3512
▁choice	-3513
▁court	-3514
▁House	-3515
▁belief	-3516
▁tissue	-3517
▁stim	-3518
▁atmosp	-3519
▁Australia	-3520
▁Rel	-3521
▁fully	-3522
▁dat	-3523
▁changed	-3524
aint	-3525
craft	-3526
▁emp	-3527
▁anx	-3528
phas	-3529
▁illust	-3530
▁Spec	-3531
▁relatively	-3532
▁Public	-3533
▁actions	-3534
▁Environment	-3535
▁antib	-3536
▁emissions	-3537
aste	-3538
▁note	-3539
▁efficient	-3540
▁baby	-3541
related	-3542
iring	-3543
▁incor	-3544
▁assist	-3545
ev	-3546
▁didn	-3547
▁Che	-3548
▁UK	-3549
▁worth	-3550
▁promot	-3551
orge	-3552
▁moment	-3553
▁tou	-3554
can	-3555
off	-3556
▁female	-3557
▁Society	-3558
ees	-3559
▁hair	-3560
▁price	-3561
▁unit	-3562
▁stories	-3563
▁appears	-3564
▁Lat	-3565
encies	-3566
▁evolution	-3567
▁functions	-3568
▁root	-3569
emy	-3570
▁components	-3571
▁mut	-3572
▁effic	-3573
▁TH	-3574
▁task	-3575
more	-3576
▁architect	-3577
▁vill	-3578
▁moving	-3579
▁peace	-3580
▁challenges	-3581
▁Germany	-3582
▁ast	-3583
▁Union	-3584
▁existing	-3585
▁construct	-3586
lor	-3587
inated	-3588
ternal	-3589
▁element	-3590
▁piece	-3591
odes	-3592
▁offers	-3593
▁pp	-3594
▁names	-3595
rief	-3596
▁Green	-3597
▁staff	-3598
▁forward	-3599
▁fresh	-3600
▁distance	-3601
▁alcohol	-3602
▁worked	-3603
gypt	-3604
▁Jewish	-3605
▁Inter	-3606
udd	-3607
▁Today	-3608
▁innov	-3609
▁contract	-3610
▁France	-3611
iful	-3612
▁instance	-3613
AL	-3614
aign	-3615
▁convers	-3616
▁style	-3617
▁repe	-3618
▁transfer	-3619
▁findings	-3620
iences	-3621
▁giving	-3622
▁opportunities	-3623
▁expand	-3624
▁educational	-3625
▁susp	-3626
▁Phil	-3627
▁observed	-3628
▁guide	-3629
ero	-3630
▁star	-3631
era	-3632
resp	-3633
rehens	-3634
▁river	-3635
rupt	-3636
▁#	-3637
▁consumption	-3638
▁initi	-3639
ygen	-3640
▁wid	-3641
▁ing	-3642
abilities	-3643
ession	-3644
▁Mic	-3645
▁equal	-3646
▁February	-3647
▁evalu	-3648
▁Ang	-3649
▁reports	-3650
rome	-3651
▁picture	-3652
▁mal	-3653
",	-3654
▁garden	-3655
▁balance	-3656
house	-3657
ux	-3658
▁experim	-3659
▁resistance	-3660
force	-3661
▁tele	-3662
▁weak	-3663
care	-3664
▁Des	-3665
▁map	-3666
▁thousands	-3667
▁significantly	-3668
▁absor	-3669
▁Av	-3670
▁huge	-3671
▁foreign	-3672
▁direction	-3673
▁blue	-3674
▁box	-3675
▁Retrieved	-3676
▁regions	-3677
▁qual	-3678
▁collabor	-3679
ky	-3680
iny	-3681
▁Mat	-3682
▁iron	-3683
▁detect	-3684
▁survey	-3685
▁mission	-3686
▁running	-3687
▁vo	-3688
EC	-3689
▁Students	-3690
▁explain	-3691
▁suggests	-3692
hors	-3693
icip	-3694
▁Pal	-3695
▁Association	-3696
▁Dec	-3697
▁friend	-3698
▁believed	-3699
▁vision	-3700
▁strategies	-3701
▁wrong	-3702
bed	-3703
▁assum	-3704
▁famous	-3705
▁defined	-3706
▁chance	-3707
▁planning	-3708
▁options	-3709
▁office	-3710
▁income	-3711
omas	-3712
▁details	-3713
amb	-3714
”,	-3715
▁native	-3716
rec	-3717
▁breast	-3718
igen	-3719
ching	-3720
asion	-3721
▁Bra	-3722
ald	-3723
▁instruct	-3724
▁James	-3725
▁carried	-3726
▁spect	-3727
▁disorder	-3728
ifically	-3729
▁Congress	-3730
▁citizens	-3731
▁passed	-3732
▁gain	-3733
▁bound	-3734
▁Work	-3735
▁extremely	-3736
▁watch	-3737
orage	-3738
▁clinical	-3739
▁treated	-3740
▁insect	-3741
▁Rem	-3742
▁util	-3743
▁experiences	-3744
▁separate	-3745
apers	-3746
▁Colle	-3747
▁plans	-3748
▁muscle	-3749
▁plastic	-3750
▁exhib	-3751
▁Therefore	-3752
▁Rev	-3753
isation	-3754
▁fix	-3755
▁glass	-3756
▁excess	-3757
▁eventually	-3758
▁divid	-3759
▁Western	-3760
▁Social	-3761
▁feature	-3762
▁attract	-3763
▁Mor	-3764
▁UN	-3765
▁Ob	-3766
▁novel	-3767
▁David	-3768
▁Mich	-3769
▁fert	-3770
▁items	-3771
▁Mary	-3772
▁Egypt	-3773
oma	-3774
▁suppl	-3775
▁structures	-3776
▁classroom	-3777
▁Vol	-3778
▁highest	-3779
pped	-3780
▁Internet	-3781
▁apply	-3782
▁Food	-3783
▁commercial	-3784
▁phen	-3785
▁Lord	-3786
▁bone	-3787
▁seven	-3788
▁explore	-3789
pris	-3790
▁celebr	-3791
▁presented	-3792
▁spring	-3793
▁immediately	-3794
▁figure	-3795
▁requirements	-3796
▁decades	-3797
▁rot	-3798
▁happen	-3799
▁generation	-3800
▁male	-3801
▁...	-3802
▁topic	-3803
.;	-3804
▁Bu	-3805
▁Human	-3806
iox	-3807
▁technologies	-3808
▁heavy	-3809
iding	-3810
▁liqu	-3811
uls	-3812
▁milk	-3813
▁sac	-3814
nes	-3815
▁Plan	-3816
▁favor	-3817
▁urban	-3818
▁journal	-3819
che	-3820
▁goals	-3821
▁organizations	-3822
▁industrial	-3823
▁mo	-3824
part	-3825
ares	-3826
DA	-3827
eces	-3828
ographic	-3829
▁Bel	-3830
▁Sub	-3831
▁pick	-3832
▁easier	-3833
▁medicine	-3834
asks	-3835
iance	-3836
▁board	-3837
▁Using	-3838
wards	-3839
ube	-3840
▁save	-3841
pan	-3842
▁Di	-3843
▁depression	-3844
▁hom	-3845
▁Found	-3846
▁conducted	-3847
ulum	-3848
▁Japanese	-3849
▁emphas	-3850
▁learned	-3851
▁truth	-3852
▁reality	-3853
▁Net	-3854
ken	-3855
▁Program	-3856
▁bank	-3857
iant	-3858
▁perspect	-3859
▁neu	-3860
▁intellig	-3861
▁bed	-3862
▁vary	-3863
▁sample	-3864
▁Sam	-3865
zz	-3866
▁dyn	-3867
▁slight	-3868
▁mer	-3869
change	-3870
ologist	-3871
▁serve	-3872
▁resource	-3873
▁becoming	-3874
ophy	-3875
▁performed	-3876
▁remove	-3877
▁cycle	-3878
▁challenge	-3879
This	-3880
▁contrast	-3881
▁faith	-3882
uing	-3883
▁introduced	-3884
OS	-3885
enth	-3886
▁letter	-3887
▁electricity	-3888
▁approximately	-3889
▁release	-3890
▁alternative	-3891
II	-3892
▁actual	-3893
▁speech	-3894
▁agg	-3895
▁Two	-3896
▁bodies	-3897
▁recommended	-3898
▁kid	-3899
▁Web	-3900
▁cand	-3901
▁metal	-3902
▁temperatures	-3903
St	-3904
▁graph	-3905
▁distribution	-3906
▁decisions	-3907
▁Gra	-3908
▁sexual	-3909
▁Further	-3910
▁ves	-3911
▁literature	-3912
▁populations	-3913
▁nutrition	-3914
▁Phys	-3915
▁aspects	-3916
EM	-3917
imens	-3918
cast	-3919
▁oxygen	-3920
▁experiment	-3921
▁destroy	-3922
iate	-3923
▁fig	-3924
▁opin	-3925
bal	-3926
▁estimated	-3927
erate	-3928
ida	-3929
antic	-3930
▁stream	-3931
▁Tur	-3932
tical	-3933
▁legisl	-3934
roph	-3935
▁moved	-3936
▁gene	-3937
▁Air	-3938
▁plat	-3939
▁nuclear	-3940
▁Organ	-3941
▁records	-3942
▁disorders	-3943
▁connected	-3944
▁frequently	-3945
▁widely	-3946
▁organic	-3947
▁combination	-3948
▁ign	-3949
othes	-3950
▁president	-3951
▁chronic	-3952
▁Council	-3953
▁buy	-3954
▁buildings	-3955
▁College	-3956
ager	-3957
char	-3958
▁mag	-3959
▁released	-3960
gal	-3961
▁party	-3962
▁Paul	-3963
▁causing	-3964
▁household	-3965
▁numerous	-3966
ulf	-3967
ously	-3968
▁independent	-3969
▁desp	-3970
Wh	-3971
ET	-3972
▁assessment	-3973
AM	-3974
▁vitamin	-3975
▁Som	-3976
▁fields	-3977
▁Test	-3978
▁statement	-3979
▁solutions	-3980
porary	-3981
unction	-3982
▁reference	-3983
▁flood	-3984
▁characteristics	-3985
▁trust	-3986
▁notes	-3987
▁violence	-3988
▁homes	-3989
raction	-3990
▁operations	-3991
tee	-3992
uses	-3993
▁George	-3994
▁esc	-3995
▁participants	-3996
ructure	-3997
▁doub	-3998
▁…	-3999
▁Development	-4000
▁store	-4001
ologists	-4002
met	-4003
▁Def	-4004
▁drive	-4005
clus	-4006
▁Greek	-4007
▁dogs	-4008
icial	-4009
▁Rober	-4010
▁changing	-4011
▁college	-4012
order	-4013
▁risks	-4014
▁film	-4015
▁inflamm	-4016
▁setting	-4017
do	-4018
▁policies	-4019
▁clearly	-4020
rant	-4021
▁failure	-4022
▁reducing	-4023
raw	-4024
PS	-4025
▁killed	-4026
▁univers	-4027
▁prefer	-4028
▁Like	-4029
▁email	-4030
ortion	-4031
▁trig	-4032
ped	-4033
▁NAS	-4034
▁Hel	-4035
▁bottom	-4036
▁Fore	-4037
▁gets	-4038
▁Both	-4039
▁resulting	-4040
iveness	-4041
▁drop	-4042
▁Government	-4043
▁thr	-4044
▁initial	-4045
▁isol	-4046
elines	-4047
▁About	-4048
▁Tex	-4049
ognitive	-4050
rog	-4051
ressive	-4052
cular	-4053
▁starting	-4054
erences	-4055
▁layer	-4056
▁wanted	-4057
▁authors	-4058
▁partners	-4059
▁internal	-4060
▁Republic	-4061
▁lived	-4062
ilit	-4063
▁appe	-4064
▁Mark	-4065
▁shap	-4066
▁covered	-4067
▁injury	-4068
▁ready	-4069
▁minor	-4070
Ch	-4071
▁discussion	-4072
▁dri	-4073
olved	-4074
tered	-4075
▁ocean	-4076
▁burn	-4077
works	-4078
▁campaign	-4079
▁technique	-4080
▁Its	-4081
cont	-4082
▁Off	-4083
▁Museum	-4084
▁prepar	-4085
▁Spanish	-4086
▁relationships	-4087
▁anyone	-4088
▁anxiety	-4089
ij	-4090
ingly	-4091
▁horm	-4092
▁infections	-4093
▁connection	-4094
rosc	-4095
▁noted	-4096
▁tour	-4097
essor	-4098
▁hol	-4099
▁Project	-4100
▁ded	-4101
▁surgery	-4102
▁involves	-4103
▁hear	-4104
▁Sy	-4105
hetic	-4106
ias	-4107
▁turned	-4108
▁ST	-4109
▁distinct	-4110
▁battle	-4111
▁mostly	-4112
▁tooth	-4113
▁happens	-4114
▁removed	-4115
▁Dem	-4116
▁thick	-4117
rest	-4118
▁La	-4119
anging	-4120
▁sand	-4121
▁replace	-4122
▁arm	-4123
atically	-4124
▁exactly	-4125
▁Mal	-4126
▁trend	-4127
▁vessel	-4128
▁Second	-4129
▁territ	-4130
▁tim	-4131
▁Ev	-4132
▁creation	-4133
roup	-4134
urance	-4135
ii	-4136
▁load	-4137
▁seed	-4138
▁Court	-4139
▁circum	-4140
▁finding	-4141
▁feeling	-4142
▁sav	-4143
▁upper	-4144
▁Hol	-4145
▁reprodu	-4146
rm	-4147
ieties	-4148
▁counter	-4149
SA	-4150
▁referred	-4151
key	-4152
▁Rich	-4153
▁expression	-4154
erved	-4155
▁cris	-4156
▁pi	-4157
ocal	-4158
▁storage	-4159
▁output	-4160
▁trib	-4161
▁conv	-4162
▁degrees	-4163
▁background	-4164
amental	-4165
rows	-4166
▁volume	-4167
▁message	-4168
▁encourage	-4169
▁confirm	-4170
▁dangerous	-4171
▁genes	-4172
▁vul	-4173
▁physic	-4174
▁classes	-4175
▁Sun	-4176
▁tum	-4177
▁trou	-4178
▁games	-4179
▁radio	-4180
▁scen	-4181
▁Bas	-4182
▁adjust	-4183
ault	-4184
▁Cath	-4185
uration	-4186
▁nor	-4187
▁experts	-4188
▁upd	-4189
▁advanced	-4190
▁pal	-4191
▁fine	-4192
▁freedom	-4193
onds	-4194
ception	-4195
▁annual	-4196
▁Hen	-4197
▁academic	-4198
▁Mr	-4199
▁core	-4200
▁principles	-4201
▁properly	-4202
▁incorpor	-4203
▁seeds	-4204
▁determined	-4205
▁option	-4206
▁whom	-4207
▁radiation	-4208
▁Mount	-4209
▁religion	-4210
riculum	-4211
▁leads	-4212
osystem	-4213
▁die	-4214
ndrome	-4215
▁helped	-4216
▁meeting	-4217
▁diss	-4218
▁mentioned	-4219
▁comprehens	-4220
▁dram	-4221
▁Port	-4222
▁conflict	-4223
▁units	-4224
▁White	-4225
anch	-4226
och	-4227
▁emotional	-4228
▁involve	-4229
▁excell	-4230
▁race	-4231
▁regarding	-4232
▁landsc	-4233
▁advantage	-4234
▁Step	-4235
▁experienced	-4236
▁NASA	-4237
▁pric	-4238
▁profession	-4239
▁Post	-4240
▁processing	-4241
▁unf	-4242
▁victim	-4243
▁elimin	-4244
▁solid	-4245
▁math	-4246
orial	-4247
lick	-4248
▁Scient	-4249
ios	-4250
ressed	-4251
▁Bro	-4252
▁transform	-4253
▁belong	-4254
▁exposed	-4255
ortunately	-4256
▁previously	-4257
▁jour	-4258
▁lung	-4259
▁Ben	-4260
oyal	-4261
▁HIV	-4262
▁click	-4263
▁synt	-4264
ping	-4265
▁influen	-4266
▁pollution	-4267
▁reb	-4268
▁grade	-4269
▁linked	-4270
▁depending	-4271
ST	-4272
▁effectively	-4273
▁gender	-4274
riage	-4275
▁inh	-4276
▁god	-4277
ishing	-4278
▁Get	-4279
▁alg	-4280
▁please	-4281
▁heard	-4282
▁input	-4283
▁mathemat	-4284
▁describe	-4285
▁spot	-4286
▁grass	-4287
▁defic	-4288
▁promote	-4289
ander	-4290
▁relevant	-4291
▁helping	-4292
▁beautiful	-4293
▁sem	-4294
▁Met	-4295
▁Treat	-4296
▁reaction	-4297
inter	-4298
▁manufacture	-4299
▁Jews	-4300
▁expert	-4301
▁kept	-4302
▁mist	-4303
▁meat	-4304
▁grant	-4305
▁amounts	-4306
rum	-4307
▁island	-4308
▁motor	-4309
▁Cle	-4310
▁interpret	-4311
urt	-4312
▁Ser	-4313
▁concerns	-4314
ategy	-4315
mark	-4316
cers	-4317
▁Asia	-4318
za	-4319
▁conservation	-4320
▁coal	-4321
▁Island	-4322
▁Data	-4323
▁sort	-4324
RE	-4325
▁served	-4326
▁calc	-4327
▁Je	-4328
rete	-4329
ributed	-4330
▁round	-4331
▁Isl	-4332
▁wealth	-4333
▁phase	-4334
ya	-4335
▁strategy	-4336
▁vot	-4337
▁Ber	-4338
▁prepared	-4339
▁meant	-4340
onic	-4341
▁operation	-4342
ago	-4343
iverse	-4344
▁presc	-4345
▁manage	-4346
itz	-4347
▁comfort	-4348
▁square	-4349
▁decided	-4350
oking	-4351
uted	-4352
inate	-4353
▁eggs	-4354
stitution	-4355
▁saying	-4356
▁definition	-4357
umn	-4358
▁improved	-4359
▁concepts	-4360
▁interested	-4361
place	-4362
▁engineering	-4363
▁Mars	-4364
▁Elect	-4365
▁Texas	-4366
▁Mac	-4367
▁farmers	-4368
▁pages	-4369
▁ship	-4370
▁pip	-4371
▁spent	-4372
▁hour	-4373
▁Mexico	-4374
▁Service	-4375
▁Old	-4376
▁kill	-4377
▁Ref	-4378
▁Class	-4379
▁mel	-4380
▁Thomas	-4381
▁consult	-4382
▁Sal	-4383
mat	-4384
▁Fre	-4385
ded	-4386
▁Central	-4387
▁efficiency	-4388
▁Make	-4389
▁discover	-4390
ifying	-4391
▁AD	-4392
▁northern	-4393
ams	-4394
▁aid	-4395
▁obvious	-4396
▁datab	-4397
▁concern	-4398
▁Fol	-4399
zing	-4400
▁official	-4401
ek	-4402
▁volunt	-4403
ta	-4404
▁southern	-4405
▁pun	-4406
▁bud	-4407
▁completed	-4408
▁articles	-4409
lease	-4410
ria	-4411
▁Op	-4412
▁vaccine	-4413
▁manner	-4414
▁vegetables	-4415
▁seek	-4416
isher	-4417
▁hearing	-4418
▁Learning	-4419
▁Dist	-4420
▁Sk	-4421
▁diagnosis	-4422
▁Mart	-4423
▁cere	-4424
aughter	-4425
board	-4426
▁atmosphere	-4427
ball	-4428
▁owners	-4429
▁credit	-4430
▁languages	-4431
▁signal	-4432
berg	-4433
▁conclud	-4434
▁cast	-4435
iling	-4436
wood	-4437
well	-4438
standing	-4439
▁invent	-4440
▁professor	-4441
▁awareness	-4442
▁platform	-4443
▁conver	-4444
▁Up	-4445
▁west	-4446
▁song	-4447
▁institutions	-4448
▁Miss	-4449
▁sustainable	-4450
▁procedure	-4451
▁chemicals	-4452
▁Addition	-4453
▁Through	-4454
▁clos	-4455
▁hospital	-4456
nic	-4457
▁samples	-4458
▁motiv	-4459
bi	-4460
▁reached	-4461
▁Acad	-4462
clusion	-4463
▁hop	-4464
▁pret	-4465
▁mainly	-4466
▁Jer	-4467
acing	-4468
alled	-4469
onomic	-4470
rates	-4471
▁Energy	-4472
astern	-4473
uable	-4474
▁Any	-4475
▁pieces	-4476
▁mort	-4477
▁secret	-4478
▁practical	-4479
▁recorded	-4480
▁looks	-4481
▁supported	-4482
▁appoint	-4483
tes	-4484
▁Supp	-4485
▁continues	-4486
comes	-4487
▁Disc	-4488
▁contribute	-4489
▁lib	-4490
▁lesson	-4491
CC	-4492
▁Sen	-4493
ules	-4494
pat	-4495
▁reduction	-4496
▁corresp	-4497
▁proposed	-4498
▁frequency	-4499
vision	-4500
▁yellow	-4501
▁Medical	-4502
▁Britain	-4503
rep	-4504
▁Civil	-4505
▁revolution	-4506
▁Direct	-4507
ormal	-4508
▁nav	-4509
▁formation	-4510
▁purposes	-4511
rence	-4512
▁notice	-4513
▁Lou	-4514
▁https	-4515
▁allowing	-4516
▁extensive	-4517
▁Life	-4518
▁charge	-4519
▁vulner	-4520
▁brother	-4521
▁intended	-4522
osite	-4523
▁Out	-4524
▁begins	-4525
▁ban	-4526
▁shared	-4527
▁News	-4528
acific	-4529
▁authority	-4530
▁pul	-4531
otic	-4532
▁storm	-4533
▁Cam	-4534
▁drinking	-4535
su	-4536
▁master	-4537
▁youth	-4538
▁dro	-4539
▁Ir	-4540
▁electrical	-4541
▁height	-4542
▁flex	-4543
ishes	-4544
akers	-4545
▁Women	-4546
▁sufficient	-4547
▁situations	-4548
▁park	-4549
rations	-4550
alle	-4551
▁Where	-4552
▁toxic	-4553
▁finally	-4554
▁primarily	-4555
▁wet	-4556
▁treatments	-4557
▁combined	-4558
▁hit	-4559
ounced	-4560
▁Arab	-4561
eline	-4562
▁Virgin	-4563
▁station	-4564
▁Space	-4565
AD	-4566
ears	-4567
aker	-4568
eters	-4569
▁facts	-4570
▁Dise	-4571
▁focused	-4572
lig	-4573
▁ideal	-4574
itors	-4575
▁Before	-4576
acters	-4577
▁jobs	-4578
▁phenomen	-4579
▁liquid	-4580
istan	-4581
▁Instead	-4582
▁renew	-4583
▁fib	-4584
▁straight	-4585
▁indicate	-4586
▁kinds	-4587
▁tasks	-4588
▁Such	-4589
▁certainly	-4590
▁offered	-4591
▁wonder	-4592
▁Technology	-4593
▁extent	-4594
▁Information	-4595
▁Franc	-4596
▁brief	-4597
ags	-4598
▁forced	-4599
▁fort	-4600
▁sector	-4601
▁remained	-4602
▁subjects	-4603
ulating	-4604
▁taught	-4605
▁foss	-4606
▁Mil	-4607
ixt	-4608
▁consequences	-4609
olute	-4610
▁lic	-4611
OT	-4612
▁largely	-4613
▁Medicine	-4614
▁collected	-4615
▁showing	-4616
rapy	-4617
▁muscles	-4618
▁existence	-4619
▁army	-4620
▁identity	-4621
▁morning	-4622
ague	-4623
EL	-4624
▁technical	-4625
▁Book	-4626
▁occurred	-4627
des	-4628
▁coord	-4629
▁vital	-4630
▁waters	-4631
▁Exam	-4632
▁nutrients	-4633
▁Well	-4634
▁Latin	-4635
▁digest	-4636
▁doll	-4637
▁bird	-4638
▁Expl	-4639
▁lov	-4640
espite	-4641
▁east	-4642
iated	-4643
aturally	-4644
gl	-4645
▁ecosystem	-4646
▁advance	-4647
▁operating	-4648
▁keeping	-4649
].	-4650
▁centuries	-4651
▁crucial	-4652
▁Bur	-4653
▁Atl	-4654
oper	-4655
▁gar	-4656
▁AN	-4657
▁specifically	-4658
▁Bay	-4659
▁Muslim	-4660
▁attacks	-4661
▁perman	-4662
rier	-4663
arrow	-4664
▁career	-4665
▁recy	-4666
▁hyper	-4667
▁stone	-4668
ses	-4669
▁shar	-4670
▁faster	-4671
gra	-4672
▁spend	-4673
▁flowers	-4674
eria	-4675
inger	-4676
▁Robert	-4677
vis	-4678
▁impacts	-4679
▁resist	-4680
▁Jud	-4681
▁salt	-4682
▁Mass	-4683
▁emergency	-4684
roke	-4685
▁roll	-4686
▁responsibility	-4687
inent	-4688
AP	-4689
▁bright	-4690
▁metab	-4691
▁quar	-4692
ossible	-4693
▁kn	-4694
▁particles	-4695
going	-4696
leg	-4697
▁Army	-4698
atric	-4699
▁Stand	-4700
▁topics	-4701
▁Fam	-4702
▁Bet	-4703
▁settle	-4704
▁raised	-4705
tion	-4706
▁advice	-4707
▁Common	-4708
ework	-4709
▁Commission	-4710
▁despite	-4711
▁felt	-4712
osen	-4713
▁Sl	-4714
▁double	-4715
west	-4716
▁syn	-4717
▁letters	-4718
▁Que	-4719
▁Those	-4720
▁Histor	-4721
▁nations	-4722
nel	-4723
inding	-4724
ipped	-4725
▁Fe	-4726
rian	-4727
ancing	-4728
RI	-4729
▁vast	-4730
▁grand	-4731
▁measured	-4732
▁goods	-4733
▁leader	-4734
rich	-4735
▁surrounding	-4736
olars	-4737
▁excellent	-4738
▁characters	-4739
▁vehicle	-4740
ado	-4741
▁proteins	-4742
▁affects	-4743
▁wife	-4744
▁liver	-4745
▁bill	-4746
▁refers	-4747
oo	-4748
▁Psych	-4749
▁Studies	-4750
▁oral	-4751
▁nerv	-4752
▁monitoring	-4753
▁perspective	-4754
▁external	-4755
▁cert	-4756
▁Know	-4757
▁moist	-4758
osc	-4759
▁Cop	-4760
▁motion	-4761
▁explains	-4762
▁detailed	-4763
▁tested	-4764
▁Flor	-4765
▁Nor	-4766
inn	-4767
▁clim	-4768
ras	-4769
itness	-4770
▁sche	-4771
▁periods	-4772
▁comment	-4773
▁onto	-4774
▁haz	-4775
rastructure	-4776
▁familiar	-4777
▁Ste	-4778
▁voice	-4779
▁maximum	-4780
enses	-4781
▁sounds	-4782
▁tro	-4783
▁Sou	-4784
▁agricultural	-4785
inant	-4786
▁diam	-4787
▁Sum	-4788
li	-4789
unk	-4790
▁THE	-4791
▁typical	-4792
oughly	-4793
▁aren	-4794
▁suggested	-4795
▁otherwise	-4796
▁Wind	-4797
▁component	-4798
▁Jose	-4799
▁sin	-4800
hi	-4801
ails	-4802
▁cognitive	-4803
▁ju	-4804
▁blog	-4805
down	-4806
▁Land	-4807
roid	-4808
othing	-4809
▁>	-4810
field	-4811
osa	-4812
▁mere	-4813
anges	-4814
▁accurate	-4815
▁vent	-4816
ael	-4817
BC	-4818
▁Bible	-4819
gment	-4820
roc	-4821
▁fundamental	-4822
iday	-4823
▁explan	-4824
▁Yet	-4825
omy	-4826
▁facilities	-4827
▁kil	-4828
▁Despite	-4829
▁nit	-4830
▁slightly	-4831
▁helpful	-4832
▁crops	-4833
▁played	-4834
iced	-4835
igenous	-4836
▁immig	-4837
▁satis	-4838
point	-4839
▁divided	-4840
ificial	-4841
▁crisis	-4842
▁controlled	-4843
verty	-4844
▁potentially	-4845
▁subsequ	-4846
▁explained	-4847
▁greatest	-4848
▁Smith	-4849
▁send	-4850
▁Budd	-4851
▁interests	-4852
▁fif	-4853
▁flat	-4854
▁biological	-4855
▁poverty	-4856
▁Foundation	-4857
▁thin	-4858
▁girls	-4859
▁fluid	-4860
▁links	-4861
▁floor	-4862
▁Mem	-4863
▁valid	-4864
▁increasingly	-4865
▁Google	-4866
ville	-4867
band	-4868
▁western	-4869
▁rail	-4870
▁lose	-4871
▁studied	-4872
RO	-4873
▁snow	-4874
▁substant	-4875
▁Lake	-4876
▁tips	-4877
umin	-4878
▁chann	-4879
▁fruits	-4880
▁paint	-4881
▁trial	-4882
▁km	-4883
▁phone	-4884
▁<	-4885
athy	-4886
▁harvest	-4887
▁smart	-4888
▁Pacific	-4889
▁Henry	-4890
▁immun	-4891
▁abuse	-4892
▁CD	-4893
▁happened	-4894
▁follows	-4895
▁surpris	-4896
▁apparent	-4897
ensus	-4898
▁Sea	-4899
▁investment	-4900
▁neut	-4901
▁Middle	-4902
▁request	-4903
▁stars	-4904
ht	-4905
▁Professor	-4906
▁instruction	-4907
▁depends	-4908
▁grown	-4909
▁police	-4910
aks	-4911
oviet	-4912
▁Kore	-4913
▁introduction	-4914
utive	-4915
▁depth	-4916
▁pregnancy	-4917
▁persons	-4918
▁curriculum	-4919
stood	-4920
▁Inf	-4921
▁obtained	-4922
▁BC	-4923
▁spl	-4924
▁sen	-4925
▁Charles	-4926
▁instrument	-4927
▁rural	-4928
▁Tem	-4929
name	-4930
▁interview	-4931
▁habitat	-4932
resents	-4933
▁Russian	-4934
▁pil	-4935
▁wel	-4936
▁governments	-4937
▁convent	-4938
▁Sol	-4939
▁argument	-4940
▁Russia	-4941
▁disapp	-4942
▁Environmental	-4943
▁format	-4944
▁thoughts	-4945
▁consists	-4946
cript	-4947
▁containing	-4948
▁stem	-4949
▁officials	-4950
▁bow	-4951
▁continuous	-4952
▁cardi	-4953
▁roots	-4954
col	-4955
▁elev	-4956
▁Ham	-4957
itage	-4958
▁deliver	-4959
▁Engine	-4960
win	-4961
▁Saf	-4962
▁hundreds	-4963
▁looked	-4964
▁decrease	-4965
▁Pub	-4966
▁Good	-4967
lar	-4968
BN	-4969
▁playing	-4970
▁prices	-4971
▁returned	-4972
▁Mont	-4973
▁Del	-4974
ION	-4975
celer	-4976
▁concerned	-4977
▁Figure	-4978
▁Carol	-4979
▁concentration	-4980
▁recognized	-4981
▁firm	-4982
▁outcomes	-4983
▁neighbor	-4984
▁pray	-4985
▁tried	-4986
DF	-4987
burg	-4988
chers	-4989
▁du	-4990
zy	-4991
van	-4992
▁prison	-4993
▁dial	-4994
▁protected	-4995
▁deaths	-4996
▁rapidly	-4997
▁lik	-4998
which	-4999
right	-5000
▁Catholic	-5001
▁train	-5002
▁internet	-5003
▁Wild	-5004
▁employees	-5005
▁suffering	-5006
▁represents	-5007
▁approaches	-5008
▁walls	-5009
▁Id	-5010
▁Nav	-5011
rolog	-5012
active	-5013
▁feelings	-5014
▁sed	-5015
▁title	-5016
▁closely	-5017
▁dut	-5018
▁visible	-5019
MS	-5020
atever	-5021
▁wear	-5022
asure	-5023
what	-5024
▁appearance	-5025
hips	-5026
▁weap	-5027
▁stock	-5028
onomy	-5029
▁valuable	-5030
▁minimum	-5031
▁residents	-5032
▁Att	-5033
▁selected	-5034
▁rand	-5035
▁fle	-5036
▁pu	-5037
▁appeared	-5038
▁pig	-5039
▁portion	-5040
abil	-5041
▁latest	-5042
’.	-5043
▁accompl	-5044
▁files	-5045
▁syndrome	-5046
▁Ox	-5047
▁chief	-5048
▁principle	-5049
▁medications	-5050
▁director	-5051
▁Bre	-5052
yright	-5053
▁medium	-5054
▁simpl	-5055
?”	-5056
ye	-5057
umber	-5058
tenance	-5059
fall	-5060
▁extract	-5061
ascular	-5062
inations	-5063
▁justice	-5064
▁claims	-5065
▁Emp	-5066
▁therm	-5067
▁views	-5068
mp	-5069
▁discussed	-5070
▁procedures	-5071
▁paid	-5072
icks	-5073
▁wire	-5074
▁contem	-5075
▁Soviet	-5076
▁inflammation	-5077
▁Only	-5078
▁random	-5079
▁Keep	-5080
▁Have	-5081
▁diversity	-5082
▁infected	-5083
▁adding	-5084
▁enhance	-5085
▁gun	-5086
▁Prov	-5087
▁param	-5088
▁leaving	-5089
▁regularly	-5090
ooth	-5091
▁Control	-5092
lowing	-5093
▁domestic	-5094
▁reform	-5095
▁circumst	-5096
▁satell	-5097
▁rein	-5098
▁assemb	-5099
▁correspond	-5100
▁lessons	-5101
▁Nature	-5102
TS	-5103
▁Review	-5104
▁sides	-5105
CO	-5106
▁conscious	-5107
▁expensive	-5108
▁soldiers	-5109
▁frag	-5110
▁driving	-5111
▁san	-5112
▁behaviour	-5113
▁naturally	-5114
▁spiritual	-5115
▁ages	-5116
▁inches	-5117
▁horse	-5118
▁Phot	-5119
indu	-5120
ellect	-5121
▁movements	-5122
▁stret	-5123
lers	-5124
▁band	-5125
bing	-5126
racy	-5127
▁alt	-5128
▁Power	-5129
▁stated	-5130
▁Who	-5131
▁advoc	-5132
▁businesses	-5133
▁shel	-5134
▁distingu	-5135
ulin	-5136
▁moral	-5137
▁pump	-5138
▁purs	-5139
▁knew	-5140
▁recovery	-5141
▁mobile	-5142
ario	-5143
▁infrastructure	-5144
▁Company	-5145
▁recognize	-5146
iled	-5147
▁Micro	-5148
▁Alex	-5149
▁Vis	-5150
▁push	-5151
▁od	-5152
▁Exper	-5153
▁Add	-5154
▁couple	-5155
▁funding	-5156
tr	-5157
▁discovery	-5158
▁colors	-5159
▁secure	-5160
▁IN	-5161
▁Div	-5162
▁sick	-5163
▁Please	-5164
stream	-5165
mic	-5166
free	-5167
ING	-5168
inet	-5169
▁boost	-5170
▁millions	-5171
ga	-5172
▁sets	-5173
▁ingred	-5174
▁documents	-5175
▁Ap	-5176
▁agriculture	-5177
alse	-5178
▁Long	-5179
▁Bat	-5180
▁Writ	-5181
▁Library	-5182
US	-5183
▁substance	-5184
anes	-5185
▁absolute	-5186
▁Note	-5187
cling	-5188
▁raise	-5189
▁PC	-5190
oral	-5191
▁Finally	-5192
▁rub	-5193
▁intelligence	-5194
ota	-5195
▁prevention	-5196
▁Management	-5197
state	-5198
▁AI	-5199
uke	-5200
bert	-5201
▁suffer	-5202
▁poet	-5203
▁capable	-5204
mas	-5205
▁Design	-5206
▁secondary	-5207
▁Group	-5208
orith	-5209
▁Ter	-5210
▁Rights	-5211
▁Louis	-5212
anguage	-5213
▁stages	-5214
▁leadership	-5215
▁corpor	-5216
esity	-5217
▁Rad	-5218
▁mit	-5219
▁healthcare	-5220
▁Whe	-5221
▁Mo	-5222
▁exchange	-5223
▁sensitive	-5224
▁adequ	-5225
▁facilit	-5226
▁narr	-5227
agers	-5228
▁Though	-5229
▁talking	-5230
▁Care	-5231
alysis	-5232
▁chapter	-5233
la	-5234
ffee	-5235
▁pref	-5236
▁hunt	-5237
▁ble	-5238
with	-5239
▁Early	-5240
ava	-5241
▁entirely	-5242
rants	-5243
▁Federal	-5244
▁allerg	-5245
▁vehicles	-5246
▁Ess	-5247
olf	-5248
▁Global	-5249
▁wave	-5250
▁precise	-5251
▁apart	-5252
▁myth	-5253
▁pure	-5254
▁unlike	-5255
▁describes	-5256
▁fertil	-5257
long	-5258
▁lifest	-5259
▁prem	-5260
▁dental	-5261
▁incl	-5262
▁phr	-5263
being	-5264
▁Take	-5265
ocratic	-5266
▁massive	-5267
▁impossible	-5268
road	-5269
▁experiments	-5270
▁Virginia	-5271
▁selection	-5272
icit	-5273
▁nurs	-5274
▁discrim	-5275
pping	-5276
▁parties	-5277
dden	-5278
▁Ken	-5279
▁Det	-5280
▁calls	-5281
CS	-5282
▁producing	-5283
cules	-5284
▁revealed	-5285
▁gall	-5286
osal	-5287
▁Pers	-5288
▁diverse	-5289
asp	-5290
▁Last	-5291
▁traffic	-5292
▁intake	-5293
▁steel	-5294
▁suitable	-5295
▁normally	-5296
▁trad	-5297
▁Ca	-5298
▁Ext	-5299
asive	-5300
▁library	-5301
obe	-5302
ka	-5303
VID	-5304
▁era	-5305
▁opinion	-5306
idden	-5307
ston	-5308
▁Florida	-5309
▁Exp	-5310
▁interf	-5311
▁creative	-5312
▁networks	-5313
▁brown	-5314
ypes	-5315
▁amb	-5316
othe	-5317
▁touch	-5318
▁computers	-5319
▁Diff	-5320
▁manufacturing	-5321
▁minim	-5322
alian	-5323
▁narrow	-5324
▁label	-5325
teries	-5326
▁wors	-5327
▁closed	-5328
▁formal	-5329
ny	-5330
ilding	-5331
▁consid	-5332
▁originally	-5333
▁survival	-5334
▁Ann	-5335
iology	-5336
▁antibiot	-5337
▁landscape	-5338
ibilities	-5339
ato	-5340
▁comprehensive	-5341
olester	-5342
▁recon	-5343
liam	-5344
.|	-5345
▁possess	-5346
▁database	-5347
ca	-5348
▁figures	-5349
▁chain	-5350
▁accepted	-5351
▁inject	-5352
▁recip	-5353
▁improving	-5354
▁worldwide	-5355
▁prepare	-5356
▁routine	-5357
▁moon	-5358
▁Labor	-5359
▁generate	-5360
▁Office	-5361
▁speaking	-5362
vironments	-5363
▁tun	-5364
▁plays	-5365
▁medication	-5366
▁understood	-5367
ctic	-5368
▁possibly	-5369
▁decline	-5370
▁adopted	-5371
▁bones	-5372
▁flight	-5373
▁Fact	-5374
▁index	-5375
aser	-5376
▁sudden	-5377
▁opened	-5378
▁cars	-5379
omach	-5380
▁Natural	-5381
▁supplement	-5382
▁listed	-5383
▁Peter	-5384
▁warming	-5385
▁candid	-5386
▁transition	-5387
abric	-5388
▁mamm	-5389
ona	-5390
▁dream	-5391
▁readers	-5392
▁Home	-5393
▁fill	-5394
▁nan	-5395
▁achieved	-5396
▁possibility	-5397
agues	-5398
▁village	-5399
▁restrict	-5400
▁Frank	-5401
▁worse	-5402
kin	-5403
▁pictures	-5404
osph	-5405
▁Gold	-5406
isp	-5407
anged	-5408
▁toler	-5409
▁ISBN	-5410
▁latter	-5411
▁Sym	-5412
▁stick	-5413
▁forests	-5414
pass	-5415
▁tal	-5416
▁district	-5417
▁Ill	-5418
▁regional	-5419
▁Form	-5420
pet	-5421
aph	-5422
olesterol	-5423
▁repeated	-5424
▁Joseph	-5425
▁aircraft	-5426
erals	-5427
abits	-5428
orter	-5429
▁stored	-5430
mary	-5431
▁acts	-5432
▁houses	-5433
▁guidelines	-5434
▁marriage	-5435
ifies	-5436
▁gather	-5437
▁engage	-5438
▁answers	-5439
▁leaf	-5440
▁harmful	-5441
▁plate	-5442
▁abund	-5443
ropical	-5444
▁budget	-5445
▁aw	-5446
▁Stat	-5447
▁starts	-5448
apping	-5449
▁imper	-5450
exp	-5451
▁administration	-5452
▁suc	-5453
▁solve	-5454
▁universe	-5455
▁window	-5456
prise	-5457
war	-5458
▁tow	-5459
imer	-5460
▁apprec	-5461
▁wildlife	-5462
▁Learn	-5463
▁Columb	-5464
▁cloud	-5465
rors	-5466
▁doctors	-5467
▁arms	-5468
▁dust	-5469
▁sports	-5470
▁beneficial	-5471
▁pretty	-5472
▁Constitution	-5473
mun	-5474
▁af	-5475
▁fell	-5476
▁Canadian	-5477
▁journey	-5478
▁aqu	-5479
liament	-5480
▁mountain	-5481
▁injuries	-5482
▁Dan	-5483
▁unless	-5484
▁professionals	-5485
▁tail	-5486
olve	-5487
▁struggle	-5488
▁USA	-5489
lements	-5490
hemical	-5491
▁mac	-5492
▁Free	-5493
aria	-5494
▁survive	-5495
normal	-5496
▁accounts	-5497
▁scholars	-5498
▁Sometimes	-5499
ki	-5500
▁Paris	-5501
▁Commit	-5502
▁creates	-5503
▁ancest	-5504
rem	-5505
▁remote	-5506
▁catch	-5507
▁museum	-5508
▁Vict	-5509
▁surf	-5510
▁mur	-5511
ester	-5512
▁afford	-5513
iform	-5514
oted	-5515
▁agreement	-5516
▁Australian	-5517
▁Report	-5518
▁generated	-5519
▁expressed	-5520
▁switch	-5521
▁equival	-5522
▁maintenance	-5523
▁remaining	-5524
▁ax	-5525
▁marine	-5526
▁Among	-5527
organ	-5528
▁chart	-5529
throp	-5530
▁Clin	-5531
▁Lab	-5532
▁childhood	-5533
▁twice	-5534
▁cultiv	-5535
▁edge	-5536
inder	-5537
▁depos	-5538
▁Cult	-5539
▁tells	-5540
▁happy	-5541
▁algorith	-5542
▁seeing	-5543
▁discipl	-5544
▁obtain	-5545
▁choices	-5546
▁Time	-5547
▁sweet	-5548
▁sell	-5549
ects	-5550
▁courses	-5551
ada	-5552
born	-5553
▁assistance	-5554
▁filled	-5555
▁door	-5556
add	-5557
▁sequence	-5558
▁extended	-5559
ala	-5560
▁transmission	-5561
▁battery	-5562
anda	-5563
▁lands	-5564
▁aer	-5565
▁acceler	-5566
▁environments	-5567
ait	-5568
▁studying	-5569
▁Cre	-5570
▁electronic	-5571
▁indeed	-5572
▁OF	-5573
▁tiny	-5574
▁error	-5575
orrow	-5576
▁Tor	-5577
nam	-5578
icians	-5579
▁opening	-5580
▁agencies	-5581
▁circumstances	-5582
▁Study	-5583
ua	-5584
ums	-5585
▁waves	-5586
▁decade	-5587
ogue	-5588
tage	-5589
▁Cat	-5590
ansion	-5591
spec	-5592
ini	-5593
▁intellect	-5594
▁intervention	-5595
▁produces	-5596
IL	-5597
gent	-5598
ican	-5599
▁consistent	-5600
▁unknown	-5601
.’	-5602
▁Haw	-5603
▁locations	-5604
▁wants	-5605
▁Kh	-5606
▁outl	-5607
▁derived	-5608
▁bio	-5609
▁molecules	-5610
▁enable	-5611
▁optim	-5612
▁framework	-5613
▁successfully	-5614
▁broken	-5615
icide	-5616
eper	-5617
▁Disease	-5618
▁copy	-5619
▁shell	-5620
▁download	-5621
▁Nations	-5622
▁Street	-5623
▁composition	-5624
▁reject	-5625
▁gal	-5626
ashion	-5627
If	-5628
▁skill	-5629
▁traum	-5630
’,	-5631
▁foundation	-5632
▁slowly	-5633
▁perce	-5634
▁End	-5635
▁failed	-5636
hist	-5637
▁colour	-5638
▁density	-5639
oster	-5640
zen	-5641
▁lots	-5642
▁pull	-5643
▁kit	-5644
▁truly	-5645
▁grav	-5646
cel	-5647
CT	-5648
▁troops	-5649
▁critic	-5650
▁Hall	-5651
▁mechanism	-5652
▁sod	-5653
▁responses	-5654
▁yield	-5655
▁thor	-5656
flow	-5657
▁opposite	-5658
▁laun	-5659
▁audience	-5660
▁papers	-5661
▁photos	-5662
▁greatly	-5663
▁Southern	-5664
▁authorities	-5665
ocracy	-5666
ena	-5667
lets	-5668
▁signals	-5669
▁sentence	-5670
▁fixed	-5671
▁doi	-5672
▁stomach	-5673
irus	-5674
erent	-5675
▁Mill	-5676
inating	-5677
▁Rob	-5678
▁respir	-5679
ivery	-5680
▁fossil	-5681
arant	-5682
▁doubt	-5683
inity	-5684
▁Pract	-5685
▁Oh	-5686
▁indicates	-5687
▁decide	-5688
▁Ma	-5689
▁consumers	-5690
▁marked	-5691
last	-5692
▁insects	-5693
▁interaction	-5694
▁institution	-5695
▁AS	-5696
▁Check	-5697
....	-5698
body	-5699
▁Rome	-5700
wing	-5701
▁unp	-5702
HO	-5703
▁managed	-5704
hma	-5705
▁newsp	-5706
▁mixed	-5707
▁acids	-5708
▁permanent	-5709
▁protocol	-5710
▁emotions	-5711
▁uns	-5712
itative	-5713
itudes	-5714
▁description	-5715
▁ratio	-5716
▁raw	-5717
struct	-5718
igation	-5719
▁organized	-5720
inction	-5721
▁vessels	-5722
▁sky	-5723
▁princip	-5724
▁Meth	-5725
▁witness	-5726
▁www	-5727
▁Mad	-5728
UR	-5729
▁flav	-5730
▁fasc	-5731
▁difficulty	-5732
rid	-5733
▁bear	-5734
▁cultures	-5735
▁volunte	-5736
▁wish	-5737
▁ultimately	-5738
stein	-5739
▁Richard	-5740
▁Wood	-5741
▁circuit	-5742
▁laboratory	-5743
▁calcium	-5744
EP	-5745
▁replaced	-5746
▁corn	-5747
▁represented	-5748
▁COVID	-5749
▁Climate	-5750
▁conventional	-5751
luding	-5752
▁highlight	-5753
ribed	-5754
▁carefully	-5755
gans	-5756
▁hus	-5757
▁immediate	-5758
sis	-5759
▁walking	-5760
oned	-5761
▁IP	-5762
ifications	-5763
▁Ocean	-5764
▁fly	-5765
▁reader	-5766
▁cart	-5767
▁inhib	-5768
▁sight	-5769
▁thousand	-5770
ache	-5771
inking	-5772
▁gluc	-5773
▁comparison	-5774
▁ethnic	-5775
▁dedicated	-5776
abul	-5777
▁nine	-5778
▁lifestyle	-5779
▁Creat	-5780
kes	-5781
▁Cancer	-5782
▁Camp	-5783
▁debate	-5784
▁attend	-5785
▁Quest	-5786
▁daughter	-5787
▁implementation	-5788
reed	-5789
▁remark	-5790
using	-5791
▁acknow	-5792
▁accum	-5793
▁noise	-5794
▁supporting	-5795
▁philosophy	-5796
yles	-5797
▁hero	-5798
▁Dig	-5799
zil	-5800
no	-5801
izer	-5802
rine	-5803
▁shift	-5804
▁preval	-5805
▁Eth	-5806
▁fiber	-5807
▁Bank	-5808
usal	-5809
▁writer	-5810
umes	-5811
▁handle	-5812
▁Find	-5813
▁diox	-5814
▁voc	-5815
▁machines	-5816
agon	-5817
icago	-5818
reland	-5819
▁cutting	-5820
▁limits	-5821
▁persist	-5822
▁regulations	-5823
▁coffee	-5824
▁university	-5825
▁desire	-5826
▁biggest	-5827
▁unable	-5828
▁cholesterol	-5829
▁mild	-5830
▁electron	-5831
▁Str	-5832
tic	-5833
▁Forest	-5834
gu	-5835
▁din	-5836
▁necessarily	-5837
▁brand	-5838
▁Top	-5839
▁arrived	-5840
tering	-5841
▁Does	-5842
▁alle	-5843
▁destroyed	-5844
▁Michael	-5845
▁younger	-5846
▁Fort	-5847
rating	-5848
▁constitution	-5849
ictionary	-5850
▁Color	-5851
bour	-5852
▁pron	-5853
▁fewer	-5854
ints	-5855
▁breathing	-5856
▁Northern	-5857
▁Cap	-5858
▁closer	-5859
▁magnetic	-5860
▁inner	-5861
▁chosen	-5862
▁reserv	-5863
▁purchase	-5864
▁concrete	-5865
▁regul	-5866
▁dent	-5867
▁communicate	-5868
▁roof	-5869
▁architecture	-5870
▁habits	-5871
ront	-5872
▁gone	-5873
▁smoking	-5874
▁tea	-5875
▁pup	-5876
▁Administ	-5877
stone	-5878
zed	-5879
ocy	-5880
Americ	-5881
▁nerve	-5882
▁fighting	-5883
▁underlying	-5884
▁stands	-5885
bra	-5886
▁paralle	-5887
▁Revolution	-5888
▁join	-5889
hand	-5890
fe	-5891
eck	-5892
▁Sign	-5893
▁Ireland	-5894
▁PM	-5895
bridge	-5896
aped	-5897
ella	-5898
▁evaluation	-5899
ml	-5900
▁sharing	-5901
▁exists	-5902
▁fabric	-5903
▁Furthermore	-5904
elled	-5905
▁ends	-5906
▁married	-5907
▁Similar	-5908
▁Plant	-5909
sey	-5910
▁Committee	-5911
▁List	-5912
▁feeding	-5913
▁overl	-5914
▁supports	-5915
▁Italy	-5916
cher	-5917
▁Mag	-5918
▁colleagues	-5919
level	-5920
▁Click	-5921
▁hydrogen	-5922
▁Moreover	-5923
riers	-5924
▁Agricult	-5925
▁founded	-5926
▁Unf	-5927
ipping	-5928
▁clust	-5929
▁ourselves	-5930
▁Vit	-5931
▁Current	-5932
▁neck	-5933
▁mechanisms	-5934
▁recognition	-5935
▁standing	-5936
▁listen	-5937
hop	-5938
▁improvement	-5939
ribe	-5940
ctive	-5941
then	-5942
under	-5943
▁Gal	-5944
phone	-5945
▁Native	-5946
▁unus	-5947
▁housing	-5948
inson	-5949
▁multi	-5950
▁Scot	-5951
▁whereas	-5952
orses	-5953
▁Brown	-5954
stract	-5955
▁Non	-5956
▁Scott	-5957
▁occasion	-5958
▁Pan	-5959
▁variable	-5960
▁Royal	-5961
▁Set	-5962
irty	-5963
▁photograph	-5964
ora	-5965
▁psychological	-5966
▁agency	-5967
▁relax	-5968
itan	-5969
▁Sing	-5970
▁Look	-5971
▁false	-5972
icon	-5973
▁Sever	-5974
heast	-5975
rd	-5976
▁fract	-5977
▁regist	-5978
▁Back	-5979
▁Times	-5980
▁drawing	-5981
▁percentage	-5982
▁behaviors	-5983
azing	-5984
word	-5985
orous	-5986
▁epid	-5987
▁twenty	-5988
▁contamin	-5989
▁artificial	-5990
isters	-5991
▁vulnerable	-5992
▁Gard	-5993
▁conclusion	-5994
fish	-5995
▁Additionally	-5996
omic	-5997
▁cos	-5998
▁Access	-5999
▁instructions	-6000
▁supplies	-6001
ading	-6002
▁camera	-6003
▁programming	-6004
▁border	-6005
▁rid	-6006
▁obesity	-6007
hesis	-6008
▁contained	-6009
▁compounds	-6010
What	-6011
▁shut	-6012
▁Spain	-6013
▁attached	-6014
▁Researchers	-6015
▁transportation	-6016
▁trials	-6017
▁taste	-6018
▁thy	-6019
▁territory	-6020
▁membr	-6021
▁accident	-6022
▁Penn	-6023
▁zone	-6024
▁organisms	-6025
▁confidence	-6026
▁Comput	-6027
▁launch	-6028
▁politics	-6029
▁Empire	-6030
▁eastern	-6031
▁Carolina	-6032
▁eld	-6033
▁hypothes	-6034
▁Effect	-6035
▁horiz	-6036
▁delay	-6037
▁resulted	-6038
ifest	-6039
▁turns	-6040
▁subs	-6041
▁Main	-6042
▁reactions	-6043
▁Table	-6044
▁demonstrated	-6045
▁crow	-6046
▁dioxide	-6047
▁cm	-6048
▁veter	-6049
▁bread	-6050
▁carb	-6051
▁Valley	-6052
▁grew	-6053
▁stable	-6054
▁Three	-6055
▁Adv	-6056
▁resolution	-6057
net	-6058
▁Bab	-6059
▁ath	-6060
▁vote	-6061
rovers	-6062
▁functional	-6063
▁lies	-6064
▁pool	-6065
▁Nut	-6066
▁rising	-6067
▁crime	-6068
▁chrom	-6069
aud	-6070
▁Cy	-6071
▁equivalent	-6072
▁·	-6073
▁participate	-6074
utch	-6075
ctor	-6076
▁diagnosed	-6077
ih	-6078
▁ahead	-6079
DP	-6080
▁row	-6081
▁prompt	-6082
anta	-6083
▁mice	-6084
avery	-6085
▁trained	-6086
▁Cr	-6087
▁knows	-6088
▁distur	-6089
▁Teac	-6090
▁fever	-6091
top	-6092
▁willing	-6093
▁shop	-6094
▁tank	-6095
onia	-6096
▁relation	-6097
▁customers	-6098
As	-6099
▁observations	-6100
▁whatever	-6101
ritis	-6102
ita	-6103
▁employment	-6104
teen	-6105
▁beliefs	-6106
▁powers	-6107
▁Open	-6108
▁ment	-6109
▁astr	-6110
▁virtual	-6111
▁pair	-6112
▁zero	-6113
▁tall	-6114
▁layers	-6115
▁Equ	-6116
▁competition	-6117
▁Conn	-6118
▁feedback	-6119
cycl	-6120
▁refuge	-6121
▁joined	-6122
▁capture	-6123
▁recept	-6124
tra	-6125
▁examine	-6126
irds	-6127
▁entry	-6128
abled	-6129
▁teen	-6130
▁greenhouse	-6131
erior	-6132
▁Pop	-6133
▁estimates	-6134
▁Bus	-6135
ola	-6136
▁Sciences	-6137
▁Chicago	-6138
▁server	-6139
▁ships	-6140
▁prev	-6141
▁insurance	-6142
ugh	-6143
▁Unfortunately	-6144
▁Academy	-6145
▁demonstrate	-6146
▁instruments	-6147
▁legs	-6148
LE	-6149
▁Age	-6150
▁III	-6151
▁nearby	-6152
▁connections	-6153
▁partner	-6154
▁independence	-6155
▁objective	-6156
hav	-6157
▁medic	-6158
▁Board	-6159
▁prove	-6160
een	-6161
▁supposed	-6162
▁administr	-6163
▁presentation	-6164
▁department	-6165
▁delivery	-6166
▁Prop	-6167
exam	-6168
▁frequent	-6169
▁guarant	-6170
LA	-6171
asters	-6172
▁cats	-6173
▁generations	-6174
▁debt	-6175
ione	-6176
opy	-6177
ults	-6178
▁Sil	-6179
▁stroke	-6180
ymph	-6181
▁substances	-6182
espread	-6183
▁shot	-6184
▁comments	-6185
▁maps	-6186
▁issued	-6187
▁Special	-6188
ups	-6189
itt	-6190
There	-6191
▁fu	-6192
▁poison	-6193
hered	-6194
esis	-6195
▁Language	-6196
▁flo	-6197
▁bot	-6198
▁defe	-6199
▁funds	-6200
▁gap	-6201
▁maintaining	-6202
weight	-6203
oding	-6204
▁Hy	-6205
called	-6206
▁smoke	-6207
▁mos	-6208
▁ru	-6209
itivity	-6210
icious	-6211
▁Brazil	-6212
▁Start	-6213
▁interactions	-6214
▁Chapter	-6215
▁mining	-6216
▁outbre	-6217
▁Article	-6218
▁define	-6219
▁Family	-6220
▁Big	-6221
roduction	-6222
IP	-6223
▁explo	-6224
▁lect	-6225
uh	-6226
▁hur	-6227
▁Georg	-6228
▁Eastern	-6229
▁pra	-6230
________	-6231
▁Py	-6232
but	-6233
▁Jo	-6234
plant	-6235
▁spending	-6236
▁mode	-6237
xts	-6238
▁Victor	-6239
struction	-6240
eless	-6241
▁EU	-6242
▁painting	-6243
▁county	-6244
▁arrange	-6245
▁association	-6246
how	-6247
▁swim	-6248
▁hem	-6249
▁sole	-6250
▁launched	-6251
▁mm	-6252
▁mand	-6253
▁sheet	-6254
▁tissues	-6255
▁scan	-6256
▁Works	-6257
anches	-6258
BS	-6259
▁industries	-6260
▁settings	-6261
▁Mer	-6262
▁Young	-6263
ishment	-6264
▁Wik	-6265
▁flag	-6266
▁challenging	-6267
▁consumer	-6268
▁hole	-6269
▁scene	-6270
▁putting	-6271
▁positions	-6272
ployment	-6273
▁drain	-6274
etime	-6275
▁Dar	-6276
▁chick	-6277
▁employed	-6278
▁operate	-6279
▁spok	-6280
▁oblig	-6281
aked	-6282
▁route	-6283
▁surve	-6284
ushed	-6285
▁wasn	-6286
while	-6287
▁undert	-6288
▁vs	-6289
▁matters	-6290
▁everyday	-6291
earing	-6292
ureau	-6293
▁Orig	-6294
ey	-6295
▁involving	-6296
▁Never	-6297
▁workshe	-6298
ether	-6299
eenth	-6300
▁nest	-6301
▁stimul	-6302
▁Year	-6303
▁voltage	-6304
itely	-6305
▁categories	-6306
▁expansion	-6307
▁Martin	-6308
▁legislation	-6309
▁match	-6310
▁Resp	-6311
▁Mult	-6312
▁markets	-6313
▁smooth	-6314
▁Author	-6315
▁frame	-6316
▁script	-6317
▁bridge	-6318
▁bond	-6319
▁electro	-6320
▁cryst	-6321
▁neur	-6322
▁transp	-6323
isk	-6324
▁fold	-6325
▁passage	-6326
▁Pet	-6327
▁Mean	-6328
▁Est	-6329
▁holds	-6330
itter	-6331
▁compare	-6332
▁Italian	-6333
▁blocks	-6334
%)	-6335
▁Holy	-6336
▁Guide	-6337
osion	-6338
▁usage	-6339
▁explanation	-6340
▁fer	-6341
You	-6342
▁sections	-6343
▁Four	-6344
▁participation	-6345
▁players	-6346
ourage	-6347
ediatric	-6348
▁danger	-6349
▁reliable	-6350
▁breath	-6351
▁exercises	-6352
▁widespread	-6353
▁covers	-6354
▁significance	-6355
▁award	-6356
ighter	-6357
▁string	-6358
▁Down	-6359
oven	-6360
▁adequate	-6361
▁Lar	-6362
▁organs	-6363
▁meal	-6364
omp	-6365
▁ongoing	-6366
▁insulin	-6367
hyth	-6368
▁committed	-6369
▁cav	-6370
▁none	-6371
▁rice	-6372
▁reven	-6373
▁accessible	-6374
▁cup	-6375
IA	-6376
▁centre	-6377
▁kidney	-6378
otes	-6379
gov	-6380
gical	-6381
▁brings	-6382
dule	-6383
▁agreed	-6384
▁rig	-6385
▁ske	-6386
▁Irish	-6387
▁approved	-6388
▁forget	-6389
scale	-6390
▁ended	-6391
▁align	-6392
▁spaces	-6393
umps	-6394
▁drawn	-6395
▁Word	-6396
▁glucose	-6397
ented	-6398
▁viruses	-6399
▁estimate	-6400
▁division	-6401
▁Several	-6402
▁Less	-6403
▁physics	-6404
▁Ver	-6405
▁controls	-6406
▁minerals	-6407
azine	-6408
▁fashion	-6409
▁meters	-6410
▁damaged	-6411
▁Low	-6412
such	-6413
▁forth	-6414
idity	-6415
▁indicated	-6416
▁relief	-6417
▁runs	-6418
CD	-6419
▁reduces	-6420
▁repair	-6421
▁shif	-6422
ittle	-6423
▁rivers	-6424
▁holding	-6425
▁Cho	-6426
▁Sat	-6427
▁tight	-6428
▁installed	-6429
▁butter	-6430
▁succeed	-6431
car	-6432
▁trip	-6433
▁receiving	-6434
she	-6435
▁depart	-6436
IG	-6437
▁Mel	-6438
▁burning	-6439
▁Community	-6440
▁declared	-6441
▁historic	-6442
rooms	-6443
▁tons	-6444
▁fulf	-6445
▁strongly	-6446
iah	-6447
▁respectively	-6448
▁mechanical	-6449
▁moisture	-6450
▁measurement	-6451
occ	-6452
▁kne	-6453
▁victims	-6454
▁texts	-6455
▁boy	-6456
▁intellectual	-6457
IR	-6458
▁vac	-6459
▁constructed	-6460
irt	-6461
▁measurements	-6462
▁Party	-6463
▁gram	-6464
ibl	-6465
▁archae	-6466
▁neither	-6467
▁integrated	-6468
rite	-6469
▁rank	-6470
abulary	-6471
▁Resources	-6472
fit	-6473
▁offering	-6474
Go	-6475
▁announced	-6476
▁worry	-6477
▁orient	-6478
▁recommendations	-6479
▁sacr	-6480
▁somewhat	-6481
▁Atlantic	-6482
alls	-6483
▁banks	-6484
▁boys	-6485
▁Next	-6486
▁column	-6487
▁earn	-6488
▁Leg	-6489
▁enemy	-6490
▁biod	-6491
▁street	-6492
▁photo	-6493
iration	-6494
▁mood	-6495
▁constantly	-6496
▁MS	-6497
acco	-6498
▁nob	-6499
orph	-6500
that	-6501
▁conven	-6502
▁ille	-6503
▁Men	-6504
▁Kingdom	-6505
▁roles	-6506
▁missing	-6507
▁dys	-6508
▁publication	-6509
▁entered	-6510
reek	-6511
▁destruction	-6512
idential	-6513
▁artists	-6514
▁theories	-6515
oples	-6516
Is	-6517
ocation	-6518
▁furn	-6519
▁Services	-6520
▁controvers	-6521
▁election	-6522
▁Which	-6523
▁Oxford	-6524
▁surfaces	-6525
▁intense	-6526
▁composed	-6527
▁manip	-6528
▁aband	-6529
▁cards	-6530
▁trouble	-6531
▁variables	-6532
▁Indians	-6533
▁Ep	-6534
▁negot	-6535
▁AP	-6536
▁theore	-6537
▁stre	-6538
▁Try	-6539
▁ped	-6540
▁calories	-6541
iability	-6542
▁females	-6543
▁volcan	-6544
hent	-6545
CA	-6546
▁males	-6547
▁nervous	-6548
▁proportion	-6549
rial	-6550
▁blind	-6551
herent	-6552
▁asking	-6553
quit	-6554
▁wait	-6555
▁tract	-6556
▁babies	-6557
rot	-6558
▁seeking	-6559
▁pharm	-6560
▁Hill	-6561
amins	-6562
uts	-6563
▁bath	-6564
elesc	-6565
▁collaboration	-6566
▁Face	-6567
▁loved	-6568
%.	-6569
▁Method	-6570
▁tube	-6571
▁hun	-6572
thritis	-6573
agraph	-6574
ady	-6575
▁Lib	-6576
▁turning	-6577
▁ring	-6578
▁advert	-6579
▁evaluate	-6580
kins	-6581
▁Indust	-6582
▁Change	-6583
▁Fund	-6584
▁facility	-6585
▁guidance	-6586
▁pregnant	-6587
▁analys	-6588
▁wound	-6589
igan	-6590
etics	-6591
▁Rom	-6592
▁preparation	-6593
ulty	-6594
otton	-6595
▁influenced	-6596
▁rocks	-6597
▁distributed	-6598
gers	-6599
▁tub	-6600
▁Kar	-6601
▁Asian	-6602
▁paras	-6603
▁Security	-6604
▁parallel	-6605
▁withd	-6606
▁metabol	-6607
▁honor	-6608
▁fro	-6609
▁mortality	-6610
▁pounds	-6611
▁centers	-6612
▁Princ	-6613
▁plus	-6614
▁Viet	-6615
agram	-6616
▁Po	-6617
▁criteria	-6618
making	-6619
▁category	-6620
greg	-6621
▁edition	-6622
▁Polic	-6623
aded	-6624
▁outcome	-6625
▁examination	-6626
▁preventing	-6627
▁uncertain	-6628
rency	-6629
▁Dou	-6630
▁Type	-6631
▁Sup	-6632
▁husband	-6633
▁coastal	-6634
▁forg	-6635
ML	-6636
▁Bill	-6637
▁strict	-6638
ani	-6639
▁domain	-6640
▁seemed	-6641
▁advantages	-6642
esides	-6643
▁intest	-6644
▁engaged	-6645
▁sought	-6646
▁Naz	-6647
▁angle	-6648
ivered	-6649
▁horses	-6650
▁renewable	-6651
rey	-6652
▁realize	-6653
hyd	-6654
▁rely	-6655
▁Agency	-6656
▁respiratory	-6657
▁dose	-6658
▁theme	-6659
▁plenty	-6660
▁considering	-6661
▁Key	-6662
▁beauty	-6663
▁earthqu	-6664
▁crim	-6665
airy	-6666
▁Pak	-6667
▁merely	-6668
▁breeding	-6669
operation	-6670
▁satellite	-6671
▁dollars	-6672
▁complicated	-6673
▁designs	-6674
▁dependent	-6675
oom	-6676
▁facing	-6677
▁Christmas	-6678
▁commission	-6679
UN	-6680
▁proof	-6681
gs	-6682
▁detection	-6683
▁Gr	-6684
▁Without	-6685
▁TV	-6686
▁weapons	-6687
▁Modern	-6688
apse	-6689
▁contemporary	-6690
▁arrest	-6691
opes	-6692
▁sharp	-6693
▁conversation	-6694
bu	-6695
cyclop	-6696
▁accuracy	-6697
▁silver	-6698
▁acute	-6699
▁discrimination	-6700
▁artist	-6701
▁arts	-6702
sts	-6703
▁owner	-6704
▁subsequent	-6705
▁Islam	-6706
oln	-6707
▁score	-6708
▁molecular	-6709
▁Den	-6710
▁dischar	-6711
aming	-6712
▁Super	-6713
▁nose	-6714
▁confirmed	-6715
▁officers	-6716
▁abnormal	-6717
▁maintained	-6718
roat	-6719
▁Yes	-6720
▁Grand	-6721
▁Zeal	-6722
OL	-6723
▁ingredients	-6724
▁copper	-6725
▁messages	-6726
▁shock	-6727
▁fourth	-6728
▁phenomenon	-6729
▁peak	-6730
▁Pot	-6731
OC	-6732
▁Rock	-6733
▁rarely	-6734
▁captured	-6735
forcement	-6736
Al	-6737
health	-6738
▁proven	-6739
▁opposed	-6740
▁favorite	-6741
osh	-6742
arsh	-6743
itals	-6744
▁agents	-6745
▁desired	-6746
yal	-6747
▁biology	-6748
isdom	-6749
▁moves	-6750
iral	-6751
ixture	-6752
▁incred	-6753
▁escape	-6754
rowing	-6755
cons	-6756
rary	-6757
▁inn	-6758
▁circle	-6759
▁careful	-6760
▁implications	-6761
▁compris	-6762
▁essays	-6763
▁gradually	-6764
▁beings	-6765
▁effectiveness	-6766
▁Whether	-6767
▁focuses	-6768
▁Secret	-6769
▁clothing	-6770
ventions	-6771
▁thanks	-6772
▁combat	-6773
▁bringing	-6774
▁irrit	-6775
▁farming	-6776
▁fairly	-6777
▁presents	-6778
pes	-6779
▁jump	-6780
▁chlor	-6781
▁seconds	-6782
heimer	-6783
▁attempts	-6784
▁Perhaps	-6785
▁District	-6786
▁session	-6787
orders	-6788
▁removal	-6789
▁towns	-6790
heric	-6791
IM	-6792
▁implemented	-6793
▁id	-6794
ohyd	-6795
▁excessive	-6796
▁signed	-6797
▁Heb	-6798
aired	-6799
eren	-6800
▁pand	-6801
df	-6802
▁shapes	-6803
▁Source	-6804
▁ov	-6805
▁slavery	-6806
oir	-6807
▁aims	-6808
RA	-6809
▁fung	-6810
▁principal	-6811
▁Scientists	-6812
▁carrying	-6813
▁universal	-6814
▁islands	-6815
ovascular	-6816
▁Network	-6817
olving	-6818
▁AND	-6819
ruption	-6820
▁prohib	-6821
▁essentially	-6822
▁Reading	-6823
ommod	-6824
▁Zealand	-6825
▁Jac	-6826
▁serving	-6827
rene	-6828
eness	-6829
▁absence	-6830
▁teams	-6831
▁writers	-6832
asty	-6833
olesc	-6834
▁evil	-6835
▁Sir	-6836
▁Tre	-6837
▁Moon	-6838
▁correl	-6839
▁considerable	-6840
▁varieties	-6841
SS	-6842
▁heating	-6843
▁item	-6844
rous	-6845
▁stronger	-6846
▁statistics	-6847
▁passing	-6848
iological	-6849
aska	-6850
He	-6851
▁encouraged	-6852
▁dealing	-6853
▁infect	-6854
▁tut	-6855
▁formula	-6856
▁delivered	-6857
raining	-6858
▁MD	-6859
peror	-6860
▁Jul	-6861
▁informed	-6862
▁microb	-6863
▁treating	-6864
▁Angel	-6865
▁disaster	-6866
▁visitors	-6867
▁proved	-6868
▁Director	-6869
▁empt	-6870
▁Administration	-6871
▁gut	-6872
▁mathematics	-6873
oston	-6874
▁Tim	-6875
▁Swed	-6876
outs	-6877
ailed	-6878
▁overw	-6879
▁cleaning	-6880
▁Er	-6881
▁branches	-6882
▁Cast	-6883
▁crew	-6884
▁radical	-6885
▁temple	-6886
▁hormone	-6887
▁claimed	-6888
▁Lo	-6889
▁Coll	-6890
UT	-6891
▁difficulties	-6892
theless	-6893
eut	-6894
▁infant	-6895
▁characterized	-6896
▁Light	-6897
example	-6898
▁equally	-6899
rox	-6900
▁defense	-6901
vard	-6902
▁Safety	-6903
▁interpretation	-6904
▁flower	-6905
▁judge	-6906
▁sales	-6907
▁Sund	-6908
▁Centre	-6909
▁racial	-6910
▁learners	-6911
lishing	-6912
▁planned	-6913
istical	-6914
▁transact	-6915
▁newly	-6916
▁remed	-6917
iana	-6918
oga	-6919
tles	-6920
▁panel	-6921
IDS	-6922
▁Mah	-6923
▁phosph	-6924
emia	-6925
▁roughly	-6926
▁knowing	-6927
pling	-6928
▁Treatment	-6929
▁comfortable	-6930
▁clar	-6931
▁inher	-6932
incoln	-6933
▁Desc	-6934
▁insert	-6935
▁gained	-6936
▁outer	-6937
mes	-6938
▁screening	-6939
▁targets	-6940
▁interpre	-6941
▁Dev	-6942
▁lie	-6943
▁spectrum	-6944
▁galax	-6945
▁investigation	-6946
bles	-6947
▁Johnson	-6948
eli	-6949
▁mineral	-6950
▁reward	-6951
▁unusual	-6952
▁Sar	-6953
▁prominent	-6954
▁imagine	-6955
▁chest	-6956
▁modified	-6957
▁examined	-6958
HD	-6959
▁)	-6960
▁guard	-6961
adder	-6962
▁lake	-6963
▁Neu	-6964
▁deeper	-6965
▁filter	-6966
▁microsc	-6967
▁turb	-6968
▁roads	-6969
bar	-6970
▁structural	-6971
ogether	-6972
▁Online	-6973
▁wine	-6974
▁encoun	-6975
▁poem	-6976
▁asthma	-6977
chen	-6978
▁criminal	-6979
▁concerning	-6980
▁happening	-6981
▁Having	-6982
medi	-6983
▁healing	-6984
▁Hand	-6985
▁Windows	-6986
ounce	-6987
▁minute	-6988
▁lights	-6989
ilation	-6990
onn	-6991
▁innovation	-6992
▁finished	-6993
Ph	-6994
▁exclus	-6995
▁nitrogen	-6996
▁sport	-6997
rane	-6998
▁laid	-6999
▁experimental	-7000
▁Cell	-7001
▁serves	-7002
▁decreased	-7003
▁demands	-7004
▁substantial	-7005
bec	-7006
▁falls	-7007
▁Pakistan	-7008
abeth	-7009
▁fishing	-7010
rav	-7011
▁assume	-7012
▁printed	-7013
haust	-7014
▁elected	-7015
▁Engineering	-7016
▁Ident	-7017
illa	-7018
▁Columbia	-7019
▁eliminate	-7020
▁Oper	-7021
riend	-7022
▁fed	-7023
▁trigger	-7024
▁variation	-7025
▁cham	-7026
▁compound	-7027
▁Fire	-7028
▁branch	-7029
▁marks	-7030
▁plot	-7031
▁Ur	-7032
ano	-7033
essions	-7034
▁spin	-7035
▁grain	-7036
▁senior	-7037
▁hazard	-7038
▁decor	-7039
vin	-7040
▁diameter	-7041
▁config	-7042
▁gro	-7043
▁py	-7044
ontal	-7045
▁consideration	-7046
ima	-7047
▁usual	-7048
▁anywhere	-7049
uality	-7050
▁scientist	-7051
▁Liter	-7052
▁statements	-7053
▁stead	-7054
▁bomb	-7055
▁breed	-7056
▁mold	-7057
▁suffered	-7058
▁cooking	-7059
▁brush	-7060
▁pestic	-7061
▁observe	-7062
▁flour	-7063
▁Jeff	-7064
▁manifest	-7065
▁biom	-7066
▁pit	-7067
▁Coast	-7068
▁satisf	-7069
▁remind	-7070
CE	-7071
rison	-7072
ograp	-7073
▁Math	-7074
▁holes	-7075
▁Organization	-7076
sell	-7077
▁errors	-7078
▁Remember	-7079
▁threats	-7080
▁assigned	-7081
ostic	-7082
▁scar	-7083
alm	-7084
▁literacy	-7085
▁Tom	-7086
▁plane	-7087
▁AM	-7088
▁unw	-7089
▁Again	-7090
▁Iran	-7091
▁rose	-7092
▁physician	-7093
▁dates	-7094
▁exception	-7095
▁television	-7096
▁Sand	-7097
▁cash	-7098
amics	-7099
otype	-7100
▁bigger	-7101
▁ordered	-7102
▁trends	-7103
▁compens	-7104
▁Contin	-7105
▁initially	-7106
▁fest	-7107
▁corner	-7108
▁Prevention	-7109
▁Eliz	-7110
ptions	-7111
▁Wall	-7112
▁faced	-7113
ricts	-7114
iary	-7115
▁adm	-7116
▁Imp	-7117
▁terror	-7118
▁detected	-7119
▁recover	-7120
▁cab	-7121
▁complications	-7122
▁accommod	-7123
▁Ven	-7124
▁driven	-7125
▁Pur	-7126
▁defend	-7127
Ar	-7128
▁earliest	-7129
▁tropical	-7130
▁editor	-7131
▁Christians	-7132
coming	-7133
▁mg	-7134
riz	-7135
▁hosp	-7136
▁subt	-7137
iat	-7138
ipedia	-7139
▁View	-7140
▁maybe	-7141
▁Cross	-7142
▁videos	-7143
▁provider	-7144
▁warning	-7145
ultane	-7146
▁evolved	-7147
▁isolated	-7148
▁intent	-7149
▁Bul	-7150
▁neighborhood	-7151
fts	-7152
▁kilomet	-7153
▁alter	-7154
▁adds	-7155
igue	-7156
▁neuro	-7157
▁identification	-7158
sm	-7159
gence	-7160
▁soul	-7161
▁split	-7162
mm	-7163
unicip	-7164
▁accompan	-7165
▁regulation	-7166
atial	-7167
▁stations	-7168
An	-7169
▁Alz	-7170
▁rab	-7171
American	-7172
▁disrupt	-7173
▁Nov	-7174
▁heavily	-7175
▁Supreme	-7176
▁Business	-7177
oured	-7178
▁Parent	-7179
asant	-7180
icted	-7181
▁printing	-7182
opic	-7183
▁traditions	-7184
cient	-7185
ested	-7186
▁Heart	-7187
▁Boston	-7188
▁Init	-7189
▁conj	-7190
▁stores	-7191
▁intensity	-7192
▁Lincoln	-7193
▁Pen	-7194
ali	-7195
▁Dom	-7196
▁observation	-7197
ioxid	-7198
▁slaves	-7199
▁caught	-7200
▁Star	-7201
▁orbit	-7202
class	-7203
▁listening	-7204
atively	-7205
▁schedule	-7206
including	-7207
▁grid	-7208
EE	-7209
▁stability	-7210
vania	-7211
▁conqu	-7212
▁ye	-7213
ieval	-7214
▁sus	-7215
▁dynamic	-7216
igate	-7217
▁Assess	-7218
ogenic	-7219
▁cort	-7220
▁aged	-7221
▁measuring	-7222
▁Following	-7223
▁amazing	-7224
▁strengthen	-7225
▁coron	-7226
▁concluded	-7227
▁Lead	-7228
▁bacterial	-7229
oric	-7230
ersonal	-7231
▁translation	-7232
▁van	-7233
▁consume	-7234
semb	-7235
▁stuff	-7236
▁Scotland	-7237
▁Far	-7238
▁channel	-7239
▁engineers	-7240
▁Ol	-7241
itarian	-7242
▁Ohio	-7243
ishop	-7244
▁array	-7245
▁correctly	-7246
ude	-7247
▁granted	-7248
elfare	-7249
▁rac	-7250
▁Ask	-7251
AA	-7252
▁writes	-7253
ustain	-7254
▁Rh	-7255
▁sitting	-7256
▁processed	-7257
ette	-7258
otal	-7259
▁ceremon	-7260
effect	-7261
▁Ins	-7262
rays	-7263
▁finds	-7264
▁slave	-7265
▁hence	-7266
▁Edward	-7267
RC	-7268
▁brows	-7269
▁reveal	-7270
▁windows	-7271
ucky	-7272
▁indigenous	-7273
▁IV	-7274
▁identifying	-7275
isco	-7276
▁pin	-7277
▁vocabulary	-7278
▁Minister	-7279
▁Due	-7280
▁overcome	-7281
▁Cambridge	-7282
icing	-7283
▁Polit	-7284
rance	-7285
▁flows	-7286
▁client	-7287
syl	-7288
night	-7289
▁inspired	-7290
iture	-7291
uten	-7292
▁antibiotics	-7293
▁objectives	-7294
▁paragraph	-7295
▁occurring	-7296
▁Father	-7297
▁Indeed	-7298
▁Avoid	-7299
▁Did	-7300
cking	-7301
▁worship	-7302
▁enorm	-7303
▁;	-7304
▁coverage	-7305
onym	-7306
▁giant	-7307
▁Alzheimer	-7308
▁athlet	-7309
▁les	-7310
▁drought	-7311
▁player	-7312
▁Incre	-7313
▁union	-7314
▁pros	-7315
itual	-7316
▁honey	-7317
▁cattle	-7318
▁Based	-7319
▁sunlight	-7320
va	-7321
▁Mot	-7322
▁contribution	-7323
yer	-7324
▁TO	-7325
inf	-7326
▁Hebrew	-7327
▁Being	-7328
▁worst	-7329
▁epis	-7330
etary	-7331
▁perm	-7332
▁perception	-7333
▁reaching	-7334
▁conce	-7335
▁Ut	-7336
▁Division	-7337
▁Hospital	-7338
▁acquired	-7339
▁grows	-7340
▁uniform	-7341
▁strain	-7342
▁Conservation	-7343
ba	-7344
▁Lee	-7345
produ	-7346
▁phrase	-7347
▁blow	-7348
▁conference	-7349
▁decay	-7350
oids	-7351
ura	-7352
▁abilities	-7353
▁duty	-7354
icy	-7355
▁uncom	-7356
▁inhabit	-7357
▁CP	-7358
otherapy	-7359
▁dietary	-7360
▁emphasis	-7361
▁suscept	-7362
orted	-7363
▁adverse	-7364
▁peoples	-7365
▁alph	-7366
▁heads	-7367
▁viewed	-7368
▁experiencing	-7369
ercury	-7370
▁extend	-7371
▁Queen	-7372
▁Vitamin	-7373
▁disabilities	-7374
▁superior	-7375
▁bees	-7376
▁imaging	-7377
▁functioning	-7378
angered	-7379
▁Survey	-7380
▁agent	-7381
▁Protection	-7382
▁covering	-7383
▁Ly	-7384
▁Hor	-7385
gien	-7386
▁Force	-7387
▁wheel	-7388
just	-7389
mers	-7390
▁narrative	-7391
▁protecting	-7392
▁Unlike	-7393
▁commitment	-7394
▁providers	-7395
▁directed	-7396
spect	-7397
▁concentrations	-7398
▁Obs	-7399
▁Corn	-7400
acent	-7401
door	-7402
▁Korea	-7403
▁driver	-7404
soft	-7405
▁automatically	-7406
▁coc	-7407
▁vitamins	-7408
▁moderate	-7409
▁ampl	-7410
▁wheat	-7411
▁innovative	-7412
▁sup	-7413
ansas	-7414
▁literary	-7415
▁Road	-7416
writ	-7417
▁oldest	-7418
▁fatty	-7419
▁asc	-7420
▁lymph	-7421
mod	-7422
▁musical	-7423
▁representation	-7424
▁parameters	-7425
▁hardware	-7426
trans	-7427
▁contributed	-7428
▁mir	-7429
▁meals	-7430
MP	-7431
enger	-7432
▁quantity	-7433
▁programme	-7434
▁protective	-7435
▁ton	-7436
▁mountains	-7437
▁Way	-7438
▁calling	-7439
ographical	-7440
▁inequ	-7441
▁vaccines	-7442
▁tables	-7443
HS	-7444
from	-7445
▁Georgia	-7446
HA	-7447
isted	-7448
▁Books	-7449
▁Michigan	-7450
▁authent	-7451
▁acres	-7452
▁Gar	-7453
plete	-7454
▁stake	-7455
▁laser	-7456
▁AT	-7457
▁Policy	-7458
▁lip	-7459
itory	-7460
▁sensors	-7461
▁Head	-7462
▁exhaust	-7463
▁cooling	-7464
▁IT	-7465
▁relie	-7466
brid	-7467
▁vel	-7468
ENT	-7469
▁DO	-7470
athered	-7471
▁Play	-7472
▁affecting	-7473
century	-7474
▁regardless	-7475
sylvania	-7476
▁polar	-7477
▁weakness	-7478
▁conserv	-7479
▁addressed	-7480
▁autism	-7481
▁Facebook	-7482
har	-7483
▁resid	-7484
▁mixture	-7485
▁forming	-7486
▁girl	-7487
▁Analysis	-7488
atal	-7489
▁argue	-7490
▁mosquit	-7491
angle	-7492
▁Battle	-7493
▁Wal	-7494
ett	-7495
ptom	-7496
▁productivity	-7497
▁sensitivity	-7498
▁hidden	-7499
▁rational	-7500
▁Him	-7501
▁rect	-7502
▁pandemic	-7503
▁thermal	-7504
holders	-7505
▁preced	-7506
▁quarter	-7507
▁Card	-7508
▁profit	-7509
New	-7510
▁separated	-7511
▁farms	-7512
ogs	-7513
',	-7514
▁gases	-7515
igare	-7516
rolled	-7517
▁personality	-7518
▁advent	-7519
▁Spring	-7520
usalem	-7521
▁planting	-7522
▁Elizabeth	-7523
▁bag	-7524
▁democracy	-7525
▁regarded	-7526
▁overwhel	-7527
▁colonial	-7528
▁desert	-7529
▁enables	-7530
▁falling	-7531
rection	-7532
▁taxes	-7533
▁surge	-7534
▁killing	-7535
▁mine	-7536
▁quiet	-7537
▁counsel	-7538
▁SS	-7539
ailable	-7540
▁pla	-7541
▁settlement	-7542
▁manufacturers	-7543
▁characteristic	-7544
print	-7545
▁nice	-7546
▁tumor	-7547
▁Thanks	-7548
▁thereby	-7549
usive	-7550
▁lungs	-7551
▁aimed	-7552
?"	-7553
oli	-7554
▁robot	-7555
▁vertical	-7556
)||	-7557
▁seat	-7558
▁deficiency	-7559
ruit	-7560
dr	-7561
▁tob	-7562
▁Wil	-7563
▁mathematical	-7564
ema	-7565
ymes	-7566
▁chemistry	-7567
▁supplements	-7568
▁AL	-7569
▁simultane	-7570
▁Small	-7571
▁tor	-7572
▁Dutch	-7573
uset	-7574
▁psychology	-7575
ao	-7576
lines	-7577
▁availability	-7578
quir	-7579
▁insight	-7580
▁researcher	-7581
▁summary	-7582
acts	-7583
▁herb	-7584
apor	-7585
▁descript	-7586
▁finger	-7587
ulpt	-7588
▁appointed	-7589
▁Impro	-7590
▁Iss	-7591
▁reporting	-7592
htt	-7593
▁lens	-7594
▁sizes	-7595
▁steam	-7596
▁Lim	-7597
antly	-7598
▁interventions	-7599
quar	-7600
▁Little	-7601
▁Later	-7602
▁disability	-7603
],	-7604
▁technological	-7605
▁versions	-7606
▁assets	-7607
▁preserve	-7608
▁McC	-7609
▁stones	-7610
▁elder	-7611
▁dance	-7612
▁dress	-7613
▁Building	-7614
▁Help	-7615
▁shoot	-7616
▁ensuring	-7617
▁trauma	-7618
rical	-7619
▁educators	-7620
▁Pennsylvania	-7621
▁smell	-7622
▁Blue	-7623
usetts	-7624
▁visited	-7625
▁scores	-7626
▁customer	-7627
NS	-7628
allow	-7629
▁heritage	-7630
adel	-7631
▁Consider	-7632
▁quantum	-7633
▁calculated	-7634
achusetts	-7635
▁consumed	-7636
archy	-7637
alities	-7638
icular	-7639
▁interface	-7640
▁migration	-7641
amine	-7642
hea	-7643
▁Scholar	-7644
▁comprom	-7645
▁Palest	-7646
▁Arctic	-7647
▁bless	-7648
▁Writing	-7649
.).	-7650
neys	-7651
▁rhyth	-7652
erty	-7653
▁Mach	-7654
▁abstract	-7655
iments	-7656
▁cure	-7657
▁updated	-7658
▁Invest	-7659
▁cord	-7660
▁losses	-7661
▁cardiovascular	-7662
irms	-7663
▁cyber	-7664
azon	-7665
)|	-7666
▁ran	-7667
ricted	-7668
▁panels	-7669
▁Model	-7670
▁cotton	-7671
▁Drug	-7672
▁tobacco	-7673
una	-7674
▁interactive	-7675
▁introduce	-7676
▁ordinary	-7677
▁substit	-7678
▁exciting	-7679
▁Jerusalem	-7680
▁chances	-7681
advant	-7682
▁buried	-7683
▁advis	-7684
▁officer	-7685
▁neutral	-7686
▁Solar	-7687
▁alive	-7688
▁argued	-7689
▁ven	-7690
▁carbohyd	-7691
▁Spirit	-7692
▁Section	-7693
▁believes	-7694
▁opposition	-7695
▁orders	-7696
pled	-7697
▁analyze	-7698
▁achievement	-7699
urches	-7700
▁Ira	-7701
▁tong	-7702
▁stopped	-7703
hus	-7704
▁expanded	-7705
real	-7706
▁humanity	-7707
▁equation	-7708
▁linear	-7709
zer	-7710
▁ritual	-7711
▁urine	-7712
▁illegal	-7713
iva	-7714
How	-7715
▁charged	-7716
▁initiative	-7717
▁dimens	-7718
anger	-7719
▁pointed	-7720
▁geomet	-7721
sen	-7722
▁batteries	-7723
Sp	-7724
aws	-7725
▁Lin	-7726
▁variations	-7727
▁nutrient	-7728
CP	-7729
▁adolesc	-7730
irth	-7731
▁Point	-7732
▁managing	-7733
▁wisdom	-7734
▁gast	-7735
▁Circ	-7736
▁antioxid	-7737
▁chap	-7738
▁harder	-7739
▁proceed	-7740
▁behavioral	-7741
▁improvements	-7742
adow	-7743
▁permission	-7744
▁Islamic	-7745
▁nom	-7746
▁Max	-7747
▁computing	-7748
▁cas	-7749
▁logic	-7750
reated	-7751
mann	-7752
asts	-7753
▁sensor	-7754
▁Digital	-7755
▁exploration	-7756
▁myst	-7757
DS	-7758
▁button	-7759
▁mothers	-7760
▁lock	-7761
▁propag	-7762
▁sentences	-7763
forest	-7764
▁planets	-7765
▁societies	-7766
aren	-7767
▁tap	-7768
▁embra	-7769
▁Page	-7770
html	-7771
▁CH	-7772
rix	-7773
▁Colorado	-7774
▁Massachusetts	-7775
▁Hawai	-7776
rob	-7777
▁Justice	-7778
▁keeps	-7779
Un	-7780
▁flexible	-7781
▁poetry	-7782
▁pH	-7783
▁attitude	-7784
▁AR	-7785
▁emotion	-7786
▁dism	-7787
▁plain	-7788
▁membrane	-7789
BT	-7790
▁arguments	-7791
▁temporary	-7792
▁irrig	-7793
▁dramatic	-7794
eting	-7795
uther	-7796
▁fra	-7797
▁Harvard	-7798
▁duration	-7799
▁boundaries	-7800
▁fuels	-7801
▁Crit	-7802
▁communications	-7803
▁Economic	-7804
▁emerging	-7805
▁engaging	-7806
▁owned	-7807
▁reasonable	-7808
▁ease	-7809
▁metals	-7810
▁grains	-7811
▁Process	-7812
▁elsewhere	-7813
▁sched	-7814
ami	-7815
▁fellow	-7816
berry	-7817
▁Still	-7818
▁faces	-7819
▁oxid	-7820
▁ethical	-7821
▁cancers	-7822
def	-7823
▁Pass	-7824
▁clock	-7825
▁exhibit	-7826
opher	-7827
.'	-7828
amination	-7829
▁physically	-7830
ician	-7831
▁spr	-7832
ecess	-7833
▁ecological	-7834
amps	-7835
▁performing	-7836
▁lowest	-7837
▁Mur	-7838
▁lists	-7839
▁focusing	-7840
▁DC	-7841
▁flying	-7842
▁Alexander	-7843
▁scope	-7844
iger	-7845
omer	-7846
ependent	-7847
▁fought	-7848
▁capabilities	-7849
▁Systems	-7850
▁flash	-7851
▁fats	-7852
▁boat	-7853
▁creatures	-7854
onal	-7855
ivest	-7856
▁dim	-7857
▁?	-7858
▁waiting	-7859
▁tribes	-7860
▁royal	-7861
lete	-7862
▁attach	-7863
▁spray	-7864
▁dominant	-7865
▁Parliament	-7866
▁websites	-7867
ourse	-7868
asy	-7869
EF	-7870
▁Stan	-7871
▁tick	-7872
▁expectations	-7873
▁directions	-7874
▁threatened	-7875
▁rh	-7876
iop	-7877
▁entertain	-7878
▁wonderful	-7879
▁executive	-7880
▁hunting	-7881
▁drivers	-7882
▁Often	-7883
▁manager	-7884
▁transmit	-7885
%,	-7886
endment	-7887
arn	-7888
▁sevent	-7889
▁tempor	-7890
▁styles	-7891
ipe	-7892
▁incident	-7893
▁asp	-7894
▁Christianity	-7895
uum	-7896
cyclopedia	-7897
▁classified	-7898
▁marketing	-7899
OM	-7900
▁evening	-7901
▁Physical	-7902
▁resil	-7903
▁eru	-7904
▁compost	-7905
▁recycling	-7906
ptic	-7907
▁audio	-7908
▁Level	-7909
▁vegetation	-7910
▁Gener	-7911
▁Right	-7912
lu	-7913
esh	-7914
▁investigate	-7915
▁Confed	-7916
rize	-7917
▁Sunday	-7918
▁Within	-7919
ket	-7920
▁hormones	-7921
hire	-7922
▁Cub	-7923
▁consciousness	-7924
bean	-7925
▁scr	-7926
▁priority	-7927
▁promoting	-7928
▁gent	-7929
ipher	-7930
▁degrad	-7931
sor	-7932
▁remarkable	-7933
kind	-7934
▁jur	-7935
▁Philipp	-7936
▁Hum	-7937
▁streets	-7938
For	-7939
▁settled	-7940
▁watching	-7941
▁integration	-7942
▁evident	-7943
▁labour	-7944
▁establishment	-7945
▁reverse	-7946
▁Bang	-7947
▁spoken	-7948
▁hall	-7949
eor	-7950
ugg	-7951
fulness	-7952
▁courts	-7953
▁EPA	-7954
▁Laboratory	-7955
▁ecosystems	-7956
▁classical	-7957
▁fisher	-7958
▁Agriculture	-7959
▁determining	-7960
▁container	-7961
▁colonies	-7962
▁Kids	-7963
▁extension	-7964
uits	-7965
▁deeply	-7966
▁exped	-7967
▁fatigue	-7968
▁tens	-7969
erman	-7970
Med	-7971
▁||	-7972
▁genome	-7973
▁Ok	-7974
▁preferred	-7975
▁Saint	-7976
▁Ve	-7977
▁tip	-7978
▁Behav	-7979
▁fing	-7980
iations	-7981
▁wider	-7982
lights	-7983
▁astronom	-7984
Ex	-7985
▁equality	-7986
eries	-7987
mia	-7988
▁Ice	-7989
▁telling	-7990
▁universities	-7991
istant	-7992
zo	-7993
▁Iraq	-7994
▁assumed	-7995
▁removing	-7996
▁thread	-7997
▁sodium	-7998
▁movie	-7999
oul	-8000
utation	-8001
asma	-8002
▁Ram	-8003
▁definitely	-8004
▁lighting	-8005
CH	-8006
▁conclus	-8007
▁corresponding	-8008
▁enormous	-8009
▁contributions	-8010
▁Wildlife	-8011
▁hypothesis	-8012
ivestock	-8013
▁Cost	-8014
▁gravity	-8015
▁infants	-8016
idal	-8017
icity	-8018
▁cann	-8019
▁saved	-8020
▁safely	-8021
▁SP	-8022
And	-8023
ati	-8024
▁Chem	-8025
▁Diet	-8026
▁kingdom	-8027
aints	-8028
▁manual	-8029
▁clothes	-8030
▁entering	-8031
wan	-8032
elve	-8033
unct	-8034
ranean	-8035
▁promise	-8036
▁Copyright	-8037
▁RNA	-8038
▁Var	-8039
▁households	-8040
▁Ha	-8041
ailing	-8042
▁dies	-8043
edu	-8044
▁Gall	-8045
▁NO	-8046
▁applying	-8047
▁versus	-8048
▁joints	-8049
anted	-8050
▁Navy	-8051
▁converted	-8052
▁Given	-8053
▁Understanding	-8054
borne	-8055
▁Farm	-8056
▁dense	-8057
▁parad	-8058
▁gly	-8059
▁districts	-8060
▁attribut	-8061
▁Islands	-8062
thon	-8063
▁addiction	-8064
▁differently	-8065
tw	-8066
jo	-8067
▁shed	-8068
▁occas	-8069
▁celebrated	-8070
▁trick	-8071
mented	-8072
▁Li	-8073
▁Code	-8074
▁strike	-8075
▁empty	-8076
urning	-8077
▁requirement	-8078
▁Proble	-8079
▁fires	-8080
▁perceived	-8081
ogy	-8082
▁newspaper	-8083
▁ranging	-8084
▁interior	-8085
▁Fred	-8086
▁Francisco	-8087
▁feels	-8088
▁devast	-8089
▁grounds	-8090
thod	-8091
▁Standard	-8092
▁orb	-8093
bell	-8094
▁fet	-8095
▁targeted	-8096
▁Ott	-8097
▁minds	-8098
▁dating	-8099
▁Fil	-8100
rh	-8101
▁Norm	-8102
agan	-8103
▁pilot	-8104
▁prey	-8105
nut	-8106
▁explicit	-8107
▁Put	-8108
▁wearing	-8109
words	-8110
▁reign	-8111
▁CE	-8112
▁passion	-8113
▁painful	-8114
▁Between	-8115
▁committee	-8116
▁biodiversity	-8117
'.	-8118
▁viral	-8119
▁cough	-8120
▁Pu	-8121
▁appeal	-8122
▁differ	-8123
▁Mond	-8124
▁dil	-8125
Sh	-8126
▁Testament	-8127
▁assembly	-8128
▁Place	-8129
▁Daniel	-8130
▁losing	-8131
▁Van	-8132
▁libr	-8133
▁Portug	-8134
▁accompanied	-8135
▁fur	-8136
▁Major	-8137
▁guess	-8138
▁convey	-8139
▁dairy	-8140
agen	-8141
▁Gulf	-8142
▁Pain	-8143
MA	-8144
▁continuing	-8145
▁sculpt	-8146
▁tack	-8147
books	-8148
▁Examples	-8149
▁Symptoms	-8150
▁beat	-8151
encing	-8152
▁intr	-8153
▁Los	-8154
▁chair	-8155
▁ID	-8156
▁Andrew	-8157
▁adapted	-8158
orig	-8159
▁pupils	-8160
▁entit	-8161
▁shaped	-8162
ila	-8163
▁buff	-8164
▁Blood	-8165
mentia	-8166
▁heaven	-8167
▁engines	-8168
▁emerged	-8169
▁Similarly	-8170
▁Hence	-8171
▁thesis	-8172
eping	-8173
▁violent	-8174
fol	-8175
▁craft	-8176
neum	-8177
▁profile	-8178
▁resc	-8179
unc	-8180
▁MA	-8181
▁saving	-8182
▁balanced	-8183
▁mature	-8184
asm	-8185
▁weigh	-8186
▁CA	-8187
enced	-8188
gon	-8189
▁Bal	-8190
▁sustainability	-8191
▁sulf	-8192
▁Capt	-8193
▁convert	-8194
▁limitations	-8195
ackson	-8196
▁marg	-8197
▁aging	-8198
elescope	-8199
▁transmitted	-8200
▁raising	-8201
▁acting	-8202
▁traits	-8203
▁hat	-8204
▁HT	-8205
▁wouldn	-8206
IF	-8207
uan	-8208
▁Historical	-8209
▁fo	-8210
▁province	-8211
▁Conference	-8212
ologically	-8213
▁Interest	-8214
▁verb	-8215
▁solving	-8216
gener	-8217
▁medicines	-8218
▁embry	-8219
▁symbols	-8220
▁cul	-8221
box	-8222
▁loose	-8223
ouds	-8224
▁spots	-8225
▁references	-8226
raham	-8227
erts	-8228
▁UV	-8229
▁probability	-8230
▁accord	-8231
▁atoms	-8232
▁existed	-8233
▁expertise	-8234
▁pill	-8235
▁Introduction	-8236
▁integr	-8237
▁Emer	-8238
▁lifetime	-8239
opl	-8240
mentation	-8241
ashes	-8242
▁Indones	-8243
▁barriers	-8244
▁Much	-8245
▁Mid	-8246
▁Ba	-8247
▁facilitate	-8248
agnetic	-8249
▁begun	-8250
▁clients	-8251
▁Nob	-8252
▁Hindu	-8253
CR	-8254
▁cow	-8255
▁Music	-8256
▁trem	-8257
▁handling	-8258
▁transc	-8259
▁assert	-8260
▁attitudes	-8261
oto	-8262
▁spinal	-8263
▁anticip	-8264
▁origins	-8265
thew	-8266
▁outbreak	-8267
▁digestive	-8268
▁mouse	-8269
Gen	-8270
▁drinks	-8271
▁sad	-8272
▁replacement	-8273
aka	-8274
inois	-8275
oons	-8276
▁Hard	-8277
▁grades	-8278
▁virtually	-8279
Google	-8280
▁unn	-8281
uscript	-8282
▁bare	-8283
▁nutritional	-8284
▁prevalence	-8285
▁stood	-8286
operative	-8287
zyme	-8288
▁actively	-8289
▁obst	-8290
▁Ast	-8291
▁habitats	-8292
▁Material	-8293
▁realized	-8294
▁chose	-8295
▁intention	-8296
▁circulation	-8297
endar	-8298
▁resistant	-8299
▁Fig	-8300
flamm	-8301
▁myself	-8302
▁ham	-8303
▁hygien	-8304
▁holiday	-8305
▁Support	-8306
When	-8307
▁withdraw	-8308
foot	-8309
▁cooperation	-8310
▁cub	-8311
▁peer	-8312
▁involvement	-8313
▁gum	-8314
EG	-8315
itting	-8316
▁sessions	-8317
▁Muslims	-8318
▁engagement	-8319
section	-8320
ols	-8321
▁friendly	-8322
▁Short	-8323
▁municip	-8324
raine	-8325
▁Should	-8326
▁recre	-8327
▁notion	-8328
▁acknowled	-8329
▁tone	-8330
▁complexity	-8331
ilson	-8332
▁apparently	-8333
▁controlling	-8334
lymp	-8335
▁chromos	-8336
▁Lew	-8337
Cl	-8338
obile	-8339
ocolate	-8340
▁gathered	-8341
▁Arts	-8342
▁readily	-8343
▁Media	-8344
▁discussions	-8345
▁hospitals	-8346
▁Self	-8347
▁haven	-8348
▁seriously	-8349
roud	-8350
izers	-8351
ifice	-8352
They	-8353
▁Different	-8354
disc	-8355
▁scenario	-8356
earch	-8357
oves	-8358
chain	-8359
▁wars	-8360
▁Offic	-8361
▁photographs	-8362
▁Bureau	-8363
play	-8364
▁victory	-8365
▁personnel	-8366
olves	-8367
▁scheme	-8368
▁cheap	-8369
▁Watch	-8370
▁club	-8371
▁graduate	-8372
▁Colon	-8373
umer	-8374
▁juice	-8375
cin	-8376
▁bleeding	-8377
▁shorter	-8378
▁restore	-8379
ceans	-8380
▁occupied	-8381
▁Call	-8382
ilst	-8383
▁disadvant	-8384
▁tact	-8385
▁Amazon	-8386
▁vegetable	-8387
eath	-8388
▁immigrants	-8389
▁shore	-8390
▁welfare	-8391
▁Occ	-8392
▁meaningful	-8393
esium	-8394
▁opinions	-8395
▁ion	-8396
olt	-8397
▁armed	-8398
▁uncle	-8399
▁unlikely	-8400
▁choosing	-8401
▁returns	-8402
▁suit	-8403
▁soph	-8404
▁noticed	-8405
specific	-8406
▁Town	-8407
▁songs	-8408
▁pel	-8409
▁crown	-8410
ocity	-8411
ensed	-8412
atus	-8413
▁reaches	-8414
▁Vietnam	-8415
▁Dictionary	-8416
OD	-8417
▁persu	-8418
▁precip	-8419
assium	-8420
friend	-8421
▁develops	-8422
RNA	-8423
▁strategic	-8424
zymes	-8425
▁Mess	-8426
▁classic	-8427
▁varied	-8428
▁specified	-8429
made	-8430
▁collective	-8431
▁AC	-8432
▁Poly	-8433
▁purchased	-8434
▁Prim	-8435
▁beans	-8436
▁associate	-8437
▁pollut	-8438
▁gods	-8439
▁insights	-8440
▁aggressive	-8441
▁conversion	-8442
▁planted	-8443
▁funded	-8444
adelph	-8445
▁restaur	-8446
▁sacred	-8447
▁Wikipedia	-8448
▁tends	-8449
▁hal	-8450
▁addresses	-8451
▁Greece	-8452
▁Secretary	-8453
▁workplace	-8454
▁pione	-8455
uity	-8456
▁Move	-8457
fast	-8458
▁Squ	-8459
▁pairs	-8460
▁literally	-8461
urrent	-8462
▁Chief	-8463
▁Hyd	-8464
▁Third	-8465
▁soils	-8466
▁ash	-8467
requ	-8468
▁Select	-8469
▁Biology	-8470
bel	-8471
▁default	-8472
▁specialized	-8473
▁colony	-8474
▁joy	-8475
world	-8476
▁scat	-8477
▁orange	-8478
▁varies	-8479
▁span	-8480
rus	-8481
▁neurons	-8482
▁tu	-8483
▁absorb	-8484
▁Rest	-8485
▁diarr	-8486
▁frust	-8487
▁thyroid	-8488
▁ears	-8489
avirus	-8490
▁sale	-8491
swe	-8492
plate	-8493
▁Image	-8494
▁Aff	-8495
akespe	-8496
▁dipl	-8497
▁Trust	-8498
▁contents	-8499
▁Ell	-8500
▁reveals	-8501
▁representative	-8502
▁qualities	-8503
▁Field	-8504
▁till	-8505
eutic	-8506
▁breaking	-8507
▁Const	-8508
ais	-8509
▁Jackson	-8510
▁powder	-8511
▁auto	-8512
sex	-8513
▁sees	-8514
▁sciences	-8515
▁constra	-8516
▁celebrate	-8517
▁spoke	-8518
▁wat	-8519
▁enthus	-8520
▁annually	-8521
icts	-8522
oded	-8523
▁Print	-8524
▁Temple	-8525
▁deploy	-8526
▁globe	-8527
▁dropped	-8528
▁basically	-8529
▁prime	-8530
▁prox	-8531
▁influences	-8532
▁Illinois	-8533
▁trace	-8534
EA	-8535
▁anger	-8536
aware	-8537
issipp	-8538
▁practition	-8539
▁paying	-8540
▁happiness	-8541
akespeare	-8542
▁currency	-8543
▁couldn	-8544
▁glac	-8545
▁breaks	-8546
▁tab	-8547
▁gif	-8548
▁analyzed	-8549
▁Friday	-8550
imp	-8551
▁Dam	-8552
▁optimal	-8553
▁Moses	-8554
awa	-8555
▁Working	-8556
▁surgical	-8557
▁recording	-8558
▁profound	-8559
▁representing	-8560
▁alarm	-8561
▁reflected	-8562
cule	-8563
▁displayed	-8564
ois	-8565
▁pets	-8566
!”	-8567
▁prescribed	-8568
▁dict	-8569
▁discipline	-8570
▁privile	-8571
▁Local	-8572
▁calculate	-8573
▁Jacob	-8574
▁spacecraft	-8575
▁Kent	-8576
▁barrier	-8577
▁Gre	-8578
▁clay	-8579
▁Olymp	-8580
▁Century	-8581
▁pace	-8582
▁maxim	-8583
▁accurately	-8584
▁penet	-8585
▁suicide	-8586
unning	-8587
▁Ministry	-8588
▁savings	-8589
▁Near	-8590
▁forecast	-8591
▁competitive	-8592
▁restoration	-8593
▁developments	-8594
adelphia	-8595
ifer	-8596
aya	-8597
outheast	-8598
▁Mexican	-8599
plo	-8600
icating	-8601
▁overview	-8602
▁arise	-8603
▁Microsoft	-8604
▁coat	-8605
▁predicted	-8606
through	-8607
▁Creek	-8608
▁everywhere	-8609
lock	-8610
claim	-8611
▁Rail	-8612
iner	-8613
▁divine	-8614
▁indirect	-8615
▁burden	-8616
▁Week	-8617
awn	-8618
▁sheep	-8619
▁tongue	-8620
▁tension	-8621
▁Nutrition	-8622
ogens	-8623
▁Best	-8624
▁prayer	-8625
▁Gh	-8626
▁ho	-8627
▁productive	-8628
▁creativity	-8629
▁metabolism	-8630
▁transferred	-8631
▁copyright	-8632
▁Computer	-8633
▁specialist	-8634
iterranean	-8635
▁gift	-8636
▁Clean	-8637
▁severity	-8638
▁Abraham	-8639
▁Ide	-8640
▁Convention	-8641
▁spatial	-8642
▁strange	-8643
▁preparing	-8644
▁incidence	-8645
text	-8646
apes	-8647
▁quantities	-8648
▁Fish	-8649
▁gardens	-8650
Ad	-8651
rip	-8652
▁identical	-8653
▁throat	-8654
▁Obama	-8655
▁analyses	-8656
issance	-8657
▁embed	-8658
▁(“	-8659
▁illnesses	-8660
▁logical	-8661
mond	-8662
▁oste	-8663
▁Sustain	-8664
bury	-8665
But	-8666
▁Rather	-8667
icking	-8668
izz	-8669
▁mask	-8670
▁wing	-8671
flu	-8672
▁minority	-8673
▁themes	-8674
sembly	-8675
▁Wed	-8676
AB	-8677
▁refused	-8678
ught	-8679
▁exploring	-8680
▁churches	-8681
▁caps	-8682
▁accomplish	-8683
▁mammals	-8684
vation	-8685
▁sug	-8686
▁livestock	-8687
▁evolutionary	-8688
▁curve	-8689
▁ol	-8690
▁Ancient	-8691
▁motivation	-8692
▁incent	-8693
▁permit	-8694
▁kg	-8695
▁Sus	-8696
▁advances	-8697
▁Paper	-8698
▁wash	-8699
shaped	-8700
▁possibilities	-8701
onents	-8702
▁Connect	-8703
▁minimal	-8704
irable	-8705
vi	-8706
▁ultimate	-8707
▁preserved	-8708
▁sister	-8709
ker	-8710
▁sons	-8711
apped	-8712
▁judgment	-8713
▁revers	-8714
▁Area	-8715
urable	-8716
▁adopt	-8717
▁impair	-8718
ometer	-8719
▁optical	-8720
▁wise	-8721
TH	-8722
▁OS	-8723
▁Fed	-8724
▁assignment	-8725
▁surprise	-8726
▁regime	-8727
Sc	-8728
▁Senate	-8729
▁puzz	-8730
▁legit	-8731
▁Typ	-8732
▁crypt	-8733
issippi	-8734
▁registered	-8735
▁restrictions	-8736
▁bears	-8737
▁Action	-8738
▁Marine	-8739
▁buying	-8740
OW	-8741
aternal	-8742
▁vig	-8743
▁theoretical	-8744
▁Import	-8745
worth	-8746
▁candidate	-8747
▁bias	-8748
otypes	-8749
▁draft	-8750
▁managers	-8751
▁Think	-8752
isations	-8753
▁posts	-8754
bered	-8755
▁PDF	-8756
▁Heritage	-8757
▁Uk	-8758
▁Text	-8759
▁borrow	-8760
▁suddenly	-8761
mble	-8762
rue	-8763
▁worker	-8764
oca	-8765
▁oils	-8766
cut	-8767
▁algorithm	-8768
elect	-8769
▁ownership	-8770
▁Tradition	-8771
green	-8772
▁Master	-8773
▁chicken	-8774
▁tomat	-8775
▁invention	-8776
▁privacy	-8777
▁satisfact	-8778
▁Practice	-8779
▁CT	-8780
▁Ren	-8781
▁Son	-8782
rypt	-8783
▁dimensions	-8784
▁perfectly	-8785
▁passes	-8786
▁Hit	-8787
▁wal	-8788
ifier	-8789
▁instances	-8790
▁channels	-8791
▁compass	-8792
dep	-8793
▁Relig	-8794
▁transplant	-8795
▁paintings	-8796
rait	-8797
▁noun	-8798
▁underground	-8799
▁separation	-8800
▁dimin	-8801
▁Fair	-8802
▁varying	-8803
▁Prom	-8804
▁Rab	-8805
▁ster	-8806
mega	-8807
▁Product	-8808
▁stere	-8809
▁fraction	-8810
▁particle	-8811
▁tom	-8812
▁vibr	-8813
▁beneath	-8814
▁Ult	-8815
oked	-8816
▁cellular	-8817
▁arthritis	-8818
▁documented	-8819
▁Clinical	-8820
▁Origin	-8821
▁streams	-8822
regon	-8823
▁hydro	-8824
▁Mediterranean	-8825
aneous	-8826
▁Neg	-8827
▁estate	-8828
▁outdoor	-8829
reprene	-8830
iblical	-8831
▁rooms	-8832
ocated	-8833
▁inev	-8834
▁Die	-8835
abling	-8836
Ps	-8837
▁puts	-8838
▁Santa	-8839
isd	-8840
ghan	-8841
▁shr	-8842
▁Commons	-8843
▁regulate	-8844
▁requiring	-8845
rowth	-8846
▁partnership	-8847
▁designated	-8848
▁addressing	-8849
▁inhabitants	-8850
gments	-8851
▁descend	-8852
▁contributing	-8853
▁Bern	-8854
▁Brain	-8855
▁FDA	-8856
▁Contact	-8857
▁PL	-8858
▁rod	-8859
▁herself	-8860
imm	-8861
▁Mind	-8862
▁enjoyed	-8863
▁Altern	-8864
▁Log	-8865
BM	-8866
▁Wilson	-8867
▁Philadelphia	-8868
rub	-8869
▁meetings	-8870
▁payment	-8871
▁Others	-8872
ospel	-8873
▁Answ	-8874
▁ft	-8875
▁consequence	-8876
▁Teachers	-8877
ref	-8878
▁utility	-8879
▁inch	-8880
▁Garden	-8881
inth	-8882
▁amino	-8883
▁applies	-8884
▁minimize	-8885
thur	-8886
▁neglect	-8887
power	-8888
▁calm	-8889
ologic	-8890
▁favour	-8891
▁disturb	-8892
▁distinguish	-8893
▁reef	-8894
▁fifth	-8895
▁Full	-8896
▁zones	-8897
ika	-8898
▁provision	-8899
▁Hem	-8900
rin	-8901
▁merch	-8902
after	-8903
▁absolutely	-8904
press	-8905
▁teens	-8906
terior	-8907
▁volunteers	-8908
▁restricted	-8909
▁accounting	-8910
▁Walk	-8911
▁unem	-8912
uled	-8913
sk	-8914
▁ranges	-8915
function	-8916
▁conflicts	-8917
▁exclud	-8918
▁bought	-8919
▁magnitude	-8920
▁bron	-8921
▁bee	-8922
▁statistical	-8923
▁isolation	-8924
▁Monday	-8925
▁Line	-8926
▁Fer	-8927
▁Tit	-8928
▁Nevertheless	-8929
▁CDC	-8930
▁phones	-8931
▁eleph	-8932
▁Scientific	-8933
▁summar	-8934
▁susceptible	-8935
iler	-8936
▁NOT	-8937
▁Individual	-8938
▁swelling	-8939
aved	-8940
▁consent	-8941
▁rib	-8942
▁villages	-8943
▁nuts	-8944
▁Alaska	-8945
▁elementary	-8946
▁Mississippi	-8947
▁Assessment	-8948
▁flexibility	-8949
▁lakes	-8950
▁totally	-8951
▁compos	-8952
▁electrons	-8953
▁employee	-8954
▁initiatives	-8955
▁Essay	-8956
▁visits	-8957
inces	-8958
ceptions	-8959
▁sediment	-8960
▁subsc	-8961
▁finish	-8962
iders	-8963
▁sending	-8964
▁encl	-8965
▁invasive	-8966
▁remem	-8967
▁doses	-8968
▁ruled	-8969
▁wings	-8970
duction	-8971
▁invasion	-8972
▁wooden	-8973
▁segment	-8974
▁attributed	-8975
▁Applic	-8976
▁simultaneously	-8977
urse	-8978
▁rainfall	-8979
▁corporate	-8980
▁distant	-8981
▁attempted	-8982
worm	-8983
child	-8984
▁gate	-8985
▁Antar	-8986
elly	-8987
▁sleeping	-8988
▁Sud	-8989
▁Schools	-8990
▁acceptable	-8991
No	-8992
orus	-8993
▁philosoph	-8994
▁Teaching	-8995
▁efficiently	-8996
▁dish	-8997
▁encounter	-8998
▁diets	-8999
▁lingu	-9000
▁fascinating	-9001
▁inherent	-9002
western	-9003
▁soy	-9004
▁dementia	-9005
▁contamination	-9006
▁hopes	-9007
▁cited	-9008
▁Ariz	-9009
▁entitled	-9010
uis	-9011
▁reproductive	-9012
▁Univers	-9013
▁establishing	-9014
aine	-9015
rose	-9016
▁transformation	-9017
bow	-9018
▁tort	-9019
▁suggesting	-9020
▁Oregon	-9021
oler	-9022
▁cycles	-9023
acles	-9024
▁proposal	-9025
▁manuscript	-9026
▁reserved	-9027
▁debris	-9028
UL	-9029
ador	-9030
▁module	-9031
rics	-9032
▁symptom	-9033
▁earthquake	-9034
emies	-9035
▁worksheets	-9036
▁Corpor	-9037
▁dramatically	-9038
▁alert	-9039
▁Station	-9040
quality	-9041
▁discharge	-9042
▁diagram	-9043
▁pert	-9044
▁perpet	-9045
regular	-9046
ouri	-9047
orters	-9048
▁developmental	-9049
▁Proper	-9050
▁gest	-9051
▁honest	-9052
▁Egyptian	-9053
▁precisely	-9054
▁winds	-9055
▁Turn	-9056
▁neural	-9057
▁elections	-9058
▁scholar	-9059
▁Unt	-9060
▁abundance	-9061
▁es	-9062
zone	-9063
▁Nic	-9064
▁Luc	-9065
▁incorporated	-9066
▁Wales	-9067
▁copies	-9068
▁LED	-9069
▁memor	-9070
▁lecture	-9071
▁alongside	-9072
amil	-9073
▁Sn	-9074
▁package	-9075
eem	-9076
▁exceed	-9077
▁hybrid	-9078
▁popularity	-9079
▁Student	-9080
▁medieval	-9081
▁prosper	-9082
itches	-9083
▁predom	-9084
ateral	-9085
▁bonds	-9086
▁abandoned	-9087
▁tumors	-9088
----	-9089
:||	-9090
cho	-9091
itic	-9092
▁Apple	-9093
▁Ont	-9094
enda	-9095
▁installation	-9096
▁Mrs	-9097
▁Turk	-9098
omed	-9099
▁relate	-9100
▁Aud	-9101
ethe	-9102
▁amongst	-9103
ideo	-9104
▁Encyclopedia	-9105
▁revenue	-9106
▁Indigenous	-9107
▁distinction	-9108
▁alumin	-9109
▁translated	-9110
▁elevated	-9111
▁stabil	-9112
▁knee	-9113
▁Bh	-9114
▁Williams	-9115
urd	-9116
▁operated	-9117
▁glob	-9118
▁systematic	-9119
▁blank	-9120
▁regulatory	-9121
Figure	-9122
▁visiting	-9123
▁minister	-9124
▁encouraging	-9125
▁endangered	-9126
erving	-9127
▁enforcement	-9128
isting	-9129
▁aside	-9130
▁citizen	-9131
ji	-9132
ivation	-9133
mal	-9134
▁deposits	-9135
pdf	-9136
▁resemb	-9137
▁hier	-9138
▁repeat	-9139
.),	-9140
iano	-9141
▁deer	-9142
▁strains	-9143
▁confusion	-9144
▁Spe	-9145
▁ending	-9146
▁absorption	-9147
▁faculty	-9148
▁enzymes	-9149
▁neighb	-9150
▁peers	-9151
efficient	-9152
▁plates	-9153
▁Jr	-9154
rium	-9155
▁metabolic	-9156
▁whenever	-9157
▁anthrop	-9158
▁surprising	-9159
▁burned	-9160
▁irrigation	-9161
▁alternatives	-9162
eras	-9163
▁("	-9164
▁CS	-9165
▁surrounded	-9166
▁classification	-9167
▁punishment	-9168
▁spreading	-9169
▁occasionally	-9170
▁engineer	-9171
http	-9172
astics	-9173
▁partial	-9174
▁scales	-9175
▁neurolog	-9176
▁prol	-9177
nia	-9178
▁subsid	-9179
▁enhanced	-9180
aven	-9181
▁Ent	-9182
PR	-9183
anz	-9184
▁ow	-9185
▁tendency	-9186
▁Tar	-9187
ictions	-9188
economic	-9189
▁morph	-9190
▁Mountain	-9191
▁brains	-9192
▁broke	-9193
▁Tool	-9194
ffe	-9195
▁combine	-9196
▁Ash	-9197
▁Need	-9198
▁diagnostic	-9199
▁Isa	-9200
ighth	-9201
▁Training	-9202
▁Ho	-9203
▁robust	-9204
▁civilization	-9205
ouses	-9206
eller	-9207
▁holy	-9208
")	-9209
sters	-9210
▁pesticides	-9211
▁Number	-9212
▁pipe	-9213
▁PhD	-9214
▁continent	-9215
▁Adam	-9216
▁folk	-9217
▁sovere	-9218
best	-9219
▁attractive	-9220
▁expanding	-9221
olph	-9222
igned	-9223
▁ES	-9224
▁healthier	-9225
▁partly	-9226
▁sectors	-9227
▁sensory	-9228
▁Bol	-9229
▁Meanwhile	-9230
▁Turkey	-9231
uct	-9232
▁excav	-9233
▁dried	-9234
▁achieving	-9235
▁legend	-9236
profit	-9237
quiry	-9238
▁relating	-9239
▁ancestors	-9240
▁Making	-9241
▁surveys	-9242
▁democratic	-9243
▁Arizona	-9244
▁prolong	-9245
enter	-9246
▁hurt	-9247
ocial	-9248
▁celeb	-9249
▁Matthew	-9250
▁Berlin	-9251
▁collapse	-9252
.:	-9253
▁contaminated	-9254
▁abundant	-9255
▁cable	-9256
▁hygiene	-9257
▁radi	-9258
▁extraord	-9259
▁Map	-9260
inery	-9261
▁thirty	-9262
▁empire	-9263
▁suggestions	-9264
▁incorporate	-9265
▁rays	-9266
▁cyl	-9267
stru	-9268
▁reflection	-9269
▁reflects	-9270
▁Angeles	-9271
etically	-9272
imensional	-9273
▁Hig	-9274
▁producers	-9275
▁penal	-9276
▁allergies	-9277
▁register	-9278
▁Write	-9279
OP	-9280
reshold	-9281
▁canal	-9282
▁Below	-9283
ricane	-9284
▁collections	-9285
▁elderly	-9286
▁bull	-9287
even	-9288
▁homework	-9289
▁magazine	-9290
▁organism	-9291
▁survived	-9292
▁fant	-9293
atoes	-9294
▁algorithms	-9295
unar	-9296
▁complement	-9297
▁Object	-9298
▁cream	-9299
▁vom	-9300
▁describing	-9301
▁murder	-9302
▁disk	-9303
▁bottle	-9304
▁conclusions	-9305
▁duties	-9306
▁Besides	-9307
▁intra	-9308
▁candidates	-9309
▁crack	-9310
itzer	-9311
▁certific	-9312
ivities	-9313
▁thank	-9314
▁Jack	-9315
▁Questions	-9316
▁Assembly	-9317
▁Defin	-9318
han	-9319
▁infectious	-9320
▁lob	-9321
▁prevents	-9322
▁velocity	-9323
uce	-9324
rint	-9325
▁clouds	-9326
▁camps	-9327
expected	-9328
▁disag	-9329
imic	-9330
isition	-9331
▁arrival	-9332
▁rough	-9333
▁semi	-9334
▁salmon	-9335
▁SC	-9336
elihood	-9337
▁muc	-9338
ieth	-9339
!!	-9340
▁straw	-9341
▁beach	-9342
▁equipped	-9343
▁panc	-9344
▁Bell	-9345
▁Fac	-9346
▁platforms	-9347
▁horizontal	-9348
▁mistakes	-9349
mail	-9350
ashed	-9351
▁Photo	-9352
▁films	-9353
bage	-9354
▁germ	-9355
▁weaken	-9356
▁influenza	-9357
▁schem	-9358
athan	-9359
▁chocolate	-9360
▁Exerc	-9361
▁repet	-9362
ATION	-9363
▁BM	-9364
oline	-9365
▁Future	-9366
▁binding	-9367
ubble	-9368
▁rom	-9369
▁factory	-9370
ropol	-9371
▁doors	-9372
On	-9373
▁cuts	-9374
▁fluor	-9375
▁Culture	-9376
▁Theory	-9377
▁enzyme	-9378
▁Name	-9379
▁Sem	-9380
▁Risk	-9381
▁Integ	-9382
▁invented	-9383
▁Doc	-9384
▁synthetic	-9385
▁verte	-9386
▁dynamics	-9387
▁approval	-9388
pos	-9389
▁oceans	-9390
▁spons	-9391
▁selling	-9392
arks	-9393
DL	-9394
rible	-9395
ugs	-9396
▁trading	-9397
▁tough	-9398
▁painted	-9399
▁broader	-9400
mental	-9401
▁fiction	-9402
▁Event	-9403
jud	-9404
▁throw	-9405
▁guarantee	-9406
▁hung	-9407
▁reasoning	-9408
▁pneum	-9409
▁chamber	-9410
▁width	-9411
▁Talk	-9412
▁kitchen	-9413
obic	-9414
▁cigare	-9415
page	-9416
▁nursing	-9417
▁Story	-9418
ependence	-9419
▁Jones	-9420
▁atmospheric	-9421
eling	-9422
▁socio	-9423
rat	-9424
ricks	-9425
▁shoulder	-9426
▁containers	-9427
Ind	-9428
▁crimes	-9429
▁Pope	-9430
▁sheets	-9431
redit	-9432
di	-9433
pre	-9434
▁spine	-9435
▁Stephen	-9436
▁erect	-9437
▁Mother	-9438
▁onset	-9439
▁improves	-9440
▁Kn	-9441
▁Luther	-9442
▁physicians	-9443
▁CR	-9444
▁dying	-9445
▁GM	-9446
▁Order	-9447
▁erosion	-9448
▁molecule	-9449
▁injured	-9450
▁imagination	-9451
▁Peace	-9452
▁Charl	-9453
▁Tenn	-9454
imen	-9455
▁valve	-9456
▁confident	-9457
also	-9458
ela	-9459
▁rent	-9460
▁NY	-9461
▁attended	-9462
▁adolescents	-9463
▁numer	-9464
▁pale	-9465
▁shares	-9466
▁grammar	-9467
▁grad	-9468
▁divide	-9469
▁mutations	-9470
▁%	-9471
▁assessments	-9472
▁consisting	-9473
▁codes	-9474
▁athletes	-9475
▁striking	-9476
▁developers	-9477
▁tracking	-9478
▁eaten	-9479
▁Standards	-9480
▁adoption	-9481
▁fingers	-9482
▁Twitter	-9483
▁consistently	-9484
▁Poland	-9485
▁residential	-9486
grade	-9487
▁Real	-9488
▁bell	-9489
Os	-9490
▁Tay	-9491
▁integrity	-9492
▁Philos	-9493
▁ul	-9494
▁reh	-9495
▁GDP	-9496
GE	-9497
nesota	-9498
▁twelve	-9499
▁evaluated	-9500
owered	-9501
▁Cond	-9502
▁bags	-9503
▁swimming	-9504
▁reputation	-9505
▁ninet	-9506
▁speaker	-9507
▁apps	-9508
illance	-9509
,’	-9510
▁memories	-9511
▁vaccination	-9512
▁reviewed	-9513
▁fitness	-9514
▁utilized	-9515
▁exhibition	-9516
▁Parents	-9517
▁dentist	-9518
▁surviv	-9519
▁Sleep	-9520
isticated	-9521
▁accidents	-9522
▁Hu	-9523
▁pine	-9524
▁officially	-9525
▁Iron	-9526
▁landing	-9527
▁shoes	-9528
▁Dyn	-9529
▁affairs	-9530
▁Cook	-9531
▁incom	-9532
▁subsequently	-9533
▁Enter	-9534
▁Available	-9535
▁definitions	-9536
▁mile	-9537
▁valley	-9538
▁Bio	-9539
arten	-9540
▁Create	-9541
▁Nether	-9542
▁seiz	-9543
▁contrad	-9544
▁NE	-9545
▁Shakespeare	-9546
arios	-9547
oving	-9548
▁economics	-9549
▁loan	-9550
olid	-9551
▁Jon	-9552
▁recall	-9553
stic	-9554
▁Jim	-9555
▁Guard	-9556
wa	-9557
ori	-9558
▁brothers	-9559
▁finance	-9560
▁consuming	-9561
▁liberal	-9562
oning	-9563
Be	-9564
▁loud	-9565
▁absorbed	-9566
▁allergic	-9567
inates	-9568
▁likelihood	-9569
▁sew	-9570
author	-9571
▁offices	-9572
▁Jun	-9573
osaur	-9574
engers	-9575
▁entrance	-9576
▁grams	-9577
▁shelter	-9578
▁Missouri	-9579
▁Script	-9580
▁Hot	-9581
▁tower	-9582
▁phenomena	-9583
▁displays	-9584
gebra	-9585
▁aggreg	-9586
velength	-9587
▁sequences	-9588
▁bite	-9589
▁Grade	-9590
▁attacked	-9591
▁wake	-9592
▁retain	-9593
▁prisoners	-9594
▁myster	-9595
▁Sav	-9596
▁Unit	-9597
▁welcome	-9598
utical	-9599
pert	-9600
▁potassium	-9601
ushing	-9602
▁struck	-9603
▁implementing	-9604
▁Death	-9605
▁cave	-9606
▁seal	-9607
esthetic	-9608
you	-9609
ctors	-9610
▁charges	-9611
▁Maryland	-9612
▁bullying	-9613
▁Marc	-9614
▁partially	-9615
▁Hitler	-9616
duate	-9617
▁adaptation	-9618
▁inflation	-9619
▁stretch	-9620
▁avoiding	-9621
▁ON	-9622
▁boundary	-9623
▁adjacent	-9624
▁Lewis	-9625
▁proud	-9626
▁therapeutic	-9627
▁Na	-9628
isons	-9629
rons	-9630
▁multipl	-9631
▁loop	-9632
da	-9633
▁Minnesota	-9634
▁collecting	-9635
▁assistant	-9636
▁Java	-9637
▁Ah	-9638
▁Living	-9639
▁Korean	-9640
olds	-9641
▁Prince	-9642
▁wage	-9643
ods	-9644
▁attributes	-9645
ceeding	-9646
istically	-9647
▁outline	-9648
▁independently	-9649
▁receives	-9650
▁jurisd	-9651
▁fatal	-9652
▁orientation	-9653
To	-9654
▁nic	-9655
▁gentle	-9656
list	-9657
▁gray	-9658
thodox	-9659
▁tag	-9660
aping	-9661
▁pose	-9662
▁circular	-9663
itate	-9664
dess	-9665
▁posted	-9666
▁assessed	-9667
▁refugees	-9668
inch	-9669
▁somewhere	-9670
▁Arm	-9671
erb	-9672
TP	-9673
akh	-9674
▁Darwin	-9675
oting	-9676
▁appointment	-9677
▁administrative	-9678
▁Marsh	-9679
▁busy	-9680
▁Governor	-9681
iph	-9682
aze	-9683
▁edges	-9684
▁abol	-9685
otion	-9686
▁Cit	-9687
▁Francis	-9688
compass	-9689
▁predators	-9690
estone	-9691
▁Six	-9692
▁Animal	-9693
▁tolerance	-9694
fly	-9695
▁emit	-9696
nea	-9697
▁Nep	-9698
acle	-9699
ayer	-9700
burn	-9701
▁ber	-9702
▁fan	-9703
reens	-9704
▁Jersey	-9705
▁wireless	-9706
▁vag	-9707
▁malaria	-9708
raid	-9709
inator	-9710
ylon	-9711
▁returning	-9712
found	-9713
▁femin	-9714
▁appreciate	-9715
itus	-9716
▁Mental	-9717
▁Dun	-9718
▁depr	-9719
▁representatives	-9720
▁pleasure	-9721
date	-9722
AF	-9723
▁campus	-9724
▁antibodies	-9725
▁historians	-9726
▁password	-9727
CL	-9728
yan	-9729
▁Trade	-9730
▁freely	-9731
otten	-9732
▁axis	-9733
▁ADHD	-9734
▁commod	-9735
▁cosm	-9736
ques	-9737
ivate	-9738
▁gran	-9739
▁Samuel	-9740
BI	-9741
ctu	-9742
▁anat	-9743
fire	-9744
▁Benef	-9745
▁mi	-9746
uro	-9747
▁arc	-9748
▁reviews	-9749
▁sampling	-9750
friendly	-9751
gregation	-9752
▁hazards	-9753
▁drops	-9754
▁Large	-9755
▁Hom	-9756
adequ	-9757
step	-9758
▁vice	-9759
healthy	-9760
orer	-9761
▁Daily	-9762
▁kilometers	-9763
▁missions	-9764
▁Case	-9765
▁nodes	-9766
▁weekly	-9767
▁pond	-9768
▁assault	-9769
▁borders	-9770
ulates	-9771
▁awarded	-9772
▁Chall	-9773
▁export	-9774
▁intensive	-9775
orious	-9776
▁parks	-9777
ipation	-9778
▁speakers	-9779
▁thoroughly	-9780
▁Ele	-9781
▁retail	-9782
▁acquire	-9783
▁convenient	-9784
▁indicating	-9785
enh	-9786
▁treaty	-9787
antine	-9788
forced	-9789
▁intermedi	-9790
Fig	-9791
▁calendar	-9792
▁prevented	-9793
▁drives	-9794
bul	-9795
▁toile	-9796
▁fibers	-9797
▁submit	-9798
▁argues	-9799
berries	-9800
Pl	-9801
cled	-9802
▁milit	-9803
▁license	-9804
▁altered	-9805
▁Econom	-9806
▁Flow	-9807
▁flavor	-9808
Our	-9809
▁pock	-9810
▁Buddh	-9811
angel	-9812
▁workshop	-9813
▁Patients	-9814
▁beam	-9815
chnology	-9816
▁investments	-9817
▁Allah	-9818
uv	-9819
▁spark	-9820
▁Davis	-9821
achel	-9822
▁threshold	-9823
▁Afghan	-9824
▁cheese	-9825
▁stems	-9826
▁Carib	-9827
▁pest	-9828
▁Statistics	-9829
▁Carl	-9830
▁prescription	-9831
QL	-9832
▁Hur	-9833
▁plasma	-9834
▁operational	-9835
atin	-9836
thal	-9837
▁Ontario	-9838
▁highlights	-9839
RS	-9840
iac	-9841
▁cycl	-9842
▁progressive	-9843
▁elabor	-9844
▁Volume	-9845
▁protest	-9846
dd	-9847
▁speeds	-9848
original	-9849
umns	-9850
▁shade	-9851
▁browser	-9852
ermat	-9853
▁fles	-9854
iances	-9855
▁deliber	-9856
▁sophisticated	-9857
▁”	-9858
▁Mand	-9859
▁tanks	-9860
▁desk	-9861
▁Core	-9862
yes	-9863
▁placing	-9864
omal	-9865
▁intelligent	-9866
▁Sab	-9867
▁trail	-9868
▁cloth	-9869
nings	-9870
▁worn	-9871
▁Cold	-9872
▁beet	-9873
▁promising	-9874
▁arrive	-9875
▁Sep	-9876
▁blo	-9877
See	-9878
▁Five	-9879
▁pink	-9880
▁council	-9881
▁cluster	-9882
▁Club	-9883
▁monthly	-9884
▁divers	-9885
PD	-9886
anol	-9887
▁fertilizer	-9888
▁Bush	-9889
▁importantly	-9890
action	-9891
▁dispers	-9892
▁lasting	-9893
▁seasonal	-9894
▁decreases	-9895
▁reservoir	-9896
▁accomplished	-9897
▁participating	-9898
▁toxins	-9899
dominal	-9900
▁avoided	-9901
▁perf	-9902
▁Han	-9903
▁concentrated	-9904
▁vine	-9905
▁Chemical	-9906
▁bark	-9907
▁Netherlands	-9908
▁humidity	-9909
pany	-9910
aning	-9911
commun	-9912
▁occupation	-9913
▁prospect	-9914
▁misc	-9915
▁Present	-9916
BD	-9917
▁Path	-9918
▁Anne	-9919
▁unexpected	-9920
▁struggling	-9921
aceutical	-9922
▁forever	-9923
▁broadcast	-9924
conn	-9925
▁Mes	-9926
▁Germans	-9927
▁diver	-9928
▁pursue	-9929
▁update	-9930
aver	-9931
Ed	-9932
▁mirror	-9933
▁Cut	-9934
▁WHO	-9935
▁boxes	-9936
▁portray	-9937
▁Currently	-9938
▁Certain	-9939
▁submitted	-9940
▁resolve	-9941
iscons	-9942
▁bearing	-9943
▁proport	-9944
formed	-9945
▁fallen	-9946
▁hide	-9947
▁contrary	-9948
▁entreprene	-9949
▁Electric	-9950
▁shallow	-9951
▁robots	-9952
▁Follow	-9953
▁libraries	-9954
▁affordable	-9955
▁artistic	-9956
▁discl	-9957
▁educated	-9958
▁grace	-9959
▁teaches	-9960
isconsin	-9961
▁Enc	-9962
▁prone	-9963
▁arranged	-9964
▁Corps	-9965
about	-9966
▁Nation	-9967
▁gaps	-9968
arians	-9969
▁fault	-9970
▁Psychology	-9971
▁bind	-9972
▁impressive	-9973
▁Ten	-9974
▁traveling	-9975
Pro	-9976
▁tribe	-9977
▁Ak	-9978
▁synthesis	-9979
All	-9980
▁courage	-9981
▁carries	-9982
emor	-9983
▁discom	-9984
▁sail	-9985
▁Num	-9986
▁patent	-9987
▁capability	-9988
▁sacrifice	-9989
▁diarrhea	-9990
▁aster	-9991
▁Zh	-9992
▁organisation	-9993
▁render	-9994
▁administered	-9995
BA	-9996
▁modeling	-9997
▁heal	-9998
▁Jefferson	-9999
▁excited	-10000
▁pou	-10001
thood	-10002
ecessary	-10003
▁Along	-10004
▁notable	-10005
▁Diabetes	-10006
▁Behavior	-10007
▁qualified	-10008
▁verse	-10009
effective	-10010
▁mini	-10011
plex	-10012
▁Democratic	-10013
▁defines	-10014
▁colored	-10015
▁Hop	-10016
▁tourism	-10017
▁manufacturer	-10018
uction	-10019
”)	-10020
▁Fa	-10021
▁Question	-10022
▁PR	-10023
ez	-10024
▁settlers	-10025
▁Tues	-10026
▁expressions	-10027
▁Centers	-10028
▁mobility	-10029
▁routes	-10030
▁hardly	-10031
ogram	-10032
▁Marx	-10033
▁Oil	-10034
▁pediatric	-10035
▁Discuss	-10036
▁therapies	-10037
III	-10038
▁appet	-10039
▁flooding	-10040
▁Satur	-10041
▁publ	-10042
PDF	-10043
▁tremend	-10044
▁Has	-10045
▁comparing	-10046
▁legacy	-10047
burgh	-10048
▁Scottish	-10049
▁connecting	-10050
law	-10051
chron	-10052
▁indoor	-10053
▁rats	-10054
arded	-10055
▁Bit	-10056
▁Hon	-10057
▁configuration	-10058
.||	-10059
▁distances	-10060
▁Additional	-10061
▁symb	-10062
▁enlar	-10063
azz	-10064
▁extinction	-10065
▁Romans	-10066
▁Thurs	-10067
▁Opt	-10068
ooked	-10069
anium	-10070
onin	-10071
▁immunity	-10072
▁washing	-10073
▁meditation	-10074
▁mapping	-10075
▁refrig	-10076
▁defects	-10077
▁meter	-10078
vy	-10079
▁Mathemat	-10080
sequently	-10081
IST	-10082
▁correlation	-10083
▁Date	-10084
▁hill	-10085
▁hypert	-10086
▁fluids	-10087
▁perspectives	-10088
▁earned	-10089
PV	-10090
▁elig	-10091
doi	-10092
▁Indonesia	-10093
▁enabled	-10094
▁constitutional	-10095
case	-10096
▁confused	-10097
oa	-10098
▁carbohydrates	-10099
generation	-10100
▁criticism	-10101
uclear	-10102
iative	-10103
ttes	-10104
coin	-10105
▁Emperor	-10106
▁devoted	-10107
▁founder	-10108
▁imperial	-10109
▁scenarios	-10110
▁exch	-10111
quarters	-10112
▁Example	-10113
▁Rose	-10114
iy	-10115
▁completion	-10116
▁designing	-10117
▁heter	-10118
▁Sher	-10119
▁embedded	-10120
inance	-10121
▁Generally	-10122
▁injection	-10123
▁Cape	-10124
▁bills	-10125
uine	-10126
▁wed	-10127
ontin	-10128
nedy	-10129
▁STEM	-10130
▁doctrine	-10131
FC	-10132
iatric	-10133
▁ought	-10134
▁undergo	-10135
▁Depending	-10136
▁Sweden	-10137
▁monument	-10138
▁pests	-10139
▁wavelength	-10140
▁irregular	-10141
▁Intellig	-10142
iotic	-10143
income	-10144
▁inequality	-10145
▁rejected	-10146
▁guns	-10147
▁inspiration	-10148
DR	-10149
atories	-10150
▁jew	-10151
▁distract	-10152
▁destination	-10153
insula	-10154
▁provisions	-10155
arer	-10156
ja	-10157
▁Poll	-10158
▁loyal	-10159
▁equations	-10160
lings	-10161
▁pushed	-10162
▁Search	-10163
▁illustrated	-10164
▁Wisconsin	-10165
▁persistent	-10166
▁distinguished	-10167
▁Hung	-10168
vae	-10169
▁Nazi	-10170
gged	-10171
▁deadly	-10172
▁Protest	-10173
▁reson	-10174
▁Tro	-10175
▁dialogue	-10176
inflamm	-10177
▁rend	-10178
▁celebration	-10179
▁transformed	-10180
▁organisations	-10181
atre	-10182
omon	-10183
▁encourages	-10184
▁Soft	-10185
▁namely	-10186
▁rubber	-10187
▁Physics	-10188
▁Cra	-10189
▁wages	-10190
▁Quality	-10191
▁genus	-10192
▁afraid	-10193
▁regen	-10194
▁Until	-10195
▁controversial	-10196
▁Exec	-10197
▁Wednes	-10198
▁mart	-10199
▁Balt	-10200
swered	-10201
▁WW	-10202
▁Index	-10203
atile	-10204
ressing	-10205
▁harsh	-10206
▁demonstrates	-10207
▁Os	-10208
▁cameras	-10209
ulsion	-10210
▁indicators	-10211
▁epidemic	-10212
▁tape	-10213
▁coral	-10214
▁thickness	-10215
▁Grant	-10216
▁execution	-10217
▁utilize	-10218
▁nort	-10219
▁bin	-10220
▁infin	-10221
abilitation	-10222
iosity	-10223
▁dow	-10224
teenth	-10225
▁allergy	-10226
ronaut	-10227
▁historian	-10228
▁leak	-10229
▁explored	-10230
Bl	-10231
▁golden	-10232
▁tied	-10233
▁Carbon	-10234
▁nerves	-10235
▁pathways	-10236
▁League	-10237
▁preservation	-10238
spring	-10239
▁essence	-10240
▁inflammatory	-10241
▁sle	-10242
▁yes	-10243
iversary	-10244
▁confront	-10245
▁Hay	-10246
▁Years	-10247
▁progression	-10248
▁NG	-10249
istent	-10250
idae	-10251
psy	-10252
▁distribut	-10253
▁mira	-10254
▁asks	-10255
▁obviously	-10256
▁alike	-10257
igm	-10258
type	-10259
▁multip	-10260
cal	-10261
▁Basic	-10262
▁algae	-10263
▁drainage	-10264
▁gear	-10265
ammad	-10266
▁ethics	-10267
▁Lower	-10268
▁traditionally	-10269
▁surprised	-10270
▁Depression	-10271
anas	-10272
▁distinctive	-10273
▁artif	-10274
LS	-10275
▁discomfort	-10276
▁featured	-10277
▁relatives	-10278
▁buck	-10279
▁mistake	-10280
emet	-10281
▁CN	-10282
▁Recent	-10283
▁parliament	-10284
▁occurrence	-10285
▁AIDS	-10286
▁defeat	-10287
▁overwhelming	-10288
▁hip	-10289
▁Species	-10290
ERS	-10291
▁mercury	-10292
▁spir	-10293
▁generating	-10294
▁vector	-10295
▁enabling	-10296
▁priest	-10297
▁brid	-10298
▁MP	-10299
sized	-10300
▁Kansas	-10301
▁recommends	-10302
▁writings	-10303
ynt	-10304
▁bladder	-10305
▁termin	-10306
▁sustained	-10307
▁promotes	-10308
▁gains	-10309
▁fate	-10310
agger	-10311
▁searching	-10312
▁Earl	-10313
▁lift	-10314
▁Pay	-10315
▁instant	-10316
▁attain	-10317
▁solely	-10318
▁Usually	-10319
▁continuously	-10320
▁rebu	-10321
▁ride	-10322
dimensional	-10323
▁Mos	-10324
▁cope	-10325
▁por	-10326
▁suspect	-10327
▁opens	-10328
▁spelling	-10329
▁Comb	-10330
▁accompany	-10331
▁Du	-10332
▁atomic	-10333
▁magnesium	-10334
yard	-10335
▁associations	-10336
fold	-10337
rust	-10338
▁Begin	-10339
▁Guid	-10340
▁implies	-10341
sub	-10342
▁racism	-10343
▁fertility	-10344
▁succeeded	-10345
▁vacuum	-10346
▁investigated	-10347
▁sel	-10348
▁thrive	-10349
▁Front	-10350
▁Pap	-10351
▁feather	-10352
▁Things	-10353
▁Linux	-10354
▁steady	-10355
actic	-10356
▁reproduction	-10357
▁anten	-10358
▁Download	-10359
▁Victoria	-10360
▁gathering	-10361
▁Sens	-10362
rophic	-10363
▁Yellow	-10364
▁contributes	-10365
entieth	-10366
▁cerv	-10367
That	-10368
alog	-10369
Le	-10370
▁NS	-10371
asses	-10372
inian	-10373
▁Dougl	-10374
▁Types	-10375
fare	-10376
▁safer	-10377
▁Tree	-10378
phones	-10379
▁zinc	-10380
▁publications	-10381
▁@	-10382
▁meteor	-10383
▁Duke	-10384
▁PA	-10385
▁obser	-10386
▁immigration	-10387
▁conducting	-10388
▁substr	-10389
nals	-10390
ergarten	-10391
▁Tuesday	-10392
▁Python	-10393
▁Az	-10394
▁Transport	-10395
▁extrem	-10396
▁Rub	-10397
▁governor	-10398
▁employers	-10399
▁°	-10400
▁stakeholders	-10401
arium	-10402
aft	-10403
▁Kennedy	-10404
**	-10405
onomous	-10406
▁Caribbean	-10407
▁acceptance	-10408
▁Kim	-10409
▁hazardous	-10410
▁Particip	-10411
▁deleg	-10412
▁Thursday	-10413
▁Wars	-10414
▁extraordinary	-10415
▁poorly	-10416
▁emission	-10417
▁matrix	-10418
▁influential	-10419
▁masses	-10420
verages	-10421
phal	-10422
▁Sac	-10423
iking	-10424
▁horn	-10425
▁Trump	-10426
cult	-10427
vol	-10428
▁alk	-10429
UC	-10430
▁accordance	-10431
onics	-10432
this	-10433
reement	-10434
▁mystery	-10435
▁patri	-10436
▁uncertainty	-10437
▁Throughout	-10438
Ref	-10439
▁shouldn	-10440
▁jaw	-10441
▁talks	-10442
ceeds	-10443
▁Leon	-10444
urated	-10445
doors	-10446
▁Imag	-10447
▁Month	-10448
▁methane	-10449
owa	-10450
▁Taylor	-10451
icides	-10452
▁columns	-10453
afe	-10454
▁specimens	-10455
▁keys	-10456
▁dangers	-10457
▁inclusion	-10458
▁Ce	-10459
▁permitted	-10460
▁torn	-10461
▁Results	-10462
▁weapon	-10463
▁revolutionary	-10464
▁Give	-10465
▁mes	-10466
▁Tib	-10467
De	-10468
▁classrooms	-10469
RL	-10470
leton	-10471
▁vomiting	-10472
▁answered	-10473
▁Lind	-10474
▁volumes	-10475
▁electronics	-10476
ropriate	-10477
pson	-10478
▁Bor	-10479
▁chron	-10480
▁locally	-10481
▁integral	-10482
▁rear	-10483
▁Wednesday	-10484
▁categor	-10485
▁compliance	-10486
▁Industrial	-10487
▁labels	-10488
▁counterpart	-10489
▁Prime	-10490
▁acknowledge	-10491
▁empower	-10492
seud	-10493
▁timing	-10494
▁executed	-10495
▁antibiotic	-10496
▁calculations	-10497
uns	-10498
TA	-10499
ocent	-10500
Co	-10501
▁toys	-10502
▁yields	-10503
▁Tax	-10504
▁Qur	-10505
lam	-10506
▁nurse	-10507
uble	-10508
owners	-10509
▁Jane	-10510
auc	-10511
▁thorough	-10512
.]	-10513
▁Bad	-10514
▁Opp	-10515
▁frozen	-10516
agle	-10517
▁firms	-10518
▁transactions	-10519
▁hepat	-10520
▁Body	-10521
▁dollar	-10522
orks	-10523
▁von	-10524
▁hunger	-10525
▁dominated	-10526
▁expenses	-10527
▁precision	-10528
▁Period	-10529
emetery	-10530
▁Healthy	-10531
▁magnet	-10532
▁Jean	-10533
▁enemies	-10534
▁counties	-10535
gered	-10536
▁investors	-10537
mn	-10538
▁bits	-10539
heastern	-10540
▁Urban	-10541
▁Rog	-10542
rared	-10543
▁Sex	-10544
▁rotation	-10545
ysical	-10546
▁tubes	-10547
▁Published	-10548
My	-10549
▁Rand	-10550
▁Franklin	-10551
▁arrangement	-10552
▁Ford	-10553
▁inadequ	-10554
▁storms	-10555
stration	-10556
front	-10557
▁markers	-10558
▁coins	-10559
▁packaging	-10560
uting	-10561
osity	-10562
▁reserves	-10563
▁Mit	-10564
▁emerge	-10565
ECT	-10566
▁Fall	-10567
▁seasons	-10568
▁pap	-10569
storm	-10570
▁declined	-10571
high	-10572
▁Deep	-10573
.-	-10574
▁voting	-10575
▁suspected	-10576
orney	-10577
arts	-10578
▁gau	-10579
ivals	-10580
▁Es	-10581
▁sperm	-10582
asal	-10583
flies	-10584
▁advertising	-10585
▁severely	-10586
▁crust	-10587
▁census	-10588
▁rocket	-10589
▁economies	-10590
▁territories	-10591
arter	-10592
▁hang	-10593
oved	-10594
▁Show	-10595
▁diplom	-10596
▁thinks	-10597
▁pries	-10598
▁frog	-10599
rise	-10600
▁Anim	-10601
▁supplied	-10602
▁disappear	-10603
▁originated	-10604
▁Primary	-10605
▁Marg	-10606
acon	-10607
▁filters	-10608
▁ruling	-10609
icting	-10610
▁lunch	-10611
develop	-10612
▁expend	-10613
▁circles	-10614
▁assumptions	-10615
▁Sa	-10616
▁cong	-10617
dated	-10618
velt	-10619
▁Prior	-10620
▁Belg	-10621
▁stiff	-10622
▁rhythm	-10623
Pub	-10624
neg	-10625
▁irre	-10626
▁explaining	-10627
▁inspect	-10628
▁necessity	-10629
ognition	-10630
school	-10631
▁encompass	-10632
▁liberty	-10633
▁coinc	-10634
▁swallow	-10635
hard	-10636
▁Ib	-10637
eav	-10638
▁Conc	-10639
inea	-10640
▁insu	-10641
▁Taking	-10642
▁situated	-10643
icked	-10644
Hz	-10645
enders	-10646
▁Magn	-10647
othy	-10648
▁Win	-10649
▁cataly	-10650
▁Flu	-10651
riction	-10652
▁Republican	-10653
▁considerably	-10654
ko	-10655
hedral	-10656
▁restored	-10657
iors	-10658
osphere	-10659
grad	-10660
▁receptors	-10661
▁genuine	-10662
▁Ni	-10663
essional	-10664
▁Polish	-10665
▁invited	-10666
▁Lt	-10667
▁Very	-10668
▁politicians	-10669
▁chapters	-10670
PL	-10671
▁dehyd	-10672
▁tracks	-10673
▁mail	-10674
vals	-10675
▁genetics	-10676
▁tired	-10677
hester	-10678
▁skull	-10679
▁Reserve	-10680
rell	-10681
cor	-10682
▁subtle	-10683
▁Ty	-10684
▁overweight	-10685
▁gland	-10686
ternoon	-10687
rels	-10688
▁Bow	-10689
▁Rus	-10690
▁Stone	-10691
▁simulation	-10692
▁Ray	-10693
▁facial	-10694
▁Materials	-10695
▁Eval	-10696
▁poems	-10697
▁Greg	-10698
▁Knowledge	-10699
▁nick	-10700
orient	-10701
▁analog	-10702
▁ensures	-10703
▁whilst	-10704
GS	-10705
▁foster	-10706
▁pathogens	-10707
▁Fram	-10708
▁potatoes	-10709
▁scal	-10710
▁Gir	-10711
▁institutional	-10712
TC	-10713
▁Evolution	-10714
onent	-10715
▁exclusively	-10716
▁stops	-10717
▁condem	-10718
▁compat	-10719
▁Teacher	-10720
▁stimulate	-10721
▁anch	-10722
▁brill	-10723
▁expedition	-10724
emed	-10725
▁stressed	-10726
▁determination	-10727
▁palm	-10728
▁Plants	-10729
▁prevalent	-10730
▁combust	-10731
▁hack	-10732
▁RE	-10733
▁filling	-10734
▁deterior	-10735
▁discoveries	-10736
oil	-10737
▁Always	-10738
osevelt	-10739
anth	-10740
cts	-10741
▁bulk	-10742
feeding	-10743
▁commands	-10744
▁expense	-10745
yt	-10746
▁phrases	-10747
onymous	-10748
▁payments	-10749
At	-10750
▁PH	-10751
role	-10752
▁casual	-10753
▁ignore	-10754
asures	-10755
▁Fem	-10756
▁Pear	-10757
▁discussing	-10758
▁yard	-10759
▁consensus	-10760
▁Requ	-10761
▁Nap	-10762
UM	-10763
▁newspapers	-10764
grim	-10765
▁impression	-10766
▁coordination	-10767
▁presum	-10768
▁enact	-10769
▁applicable	-10770
▁referring	-10771
▁kings	-10772
▁lying	-10773
▁protects	-10774
▁Vers	-10775
ochond	-10776
▁Educational	-10777
▁Architect	-10778
▁assumption	-10779
▁cardiac	-10780
▁orn	-10781
▁senses	-10782
▁FOR	-10783
▁Account	-10784
▁Job	-10785
range	-10786
▁pride	-10787
▁incredible	-10788
▁peripher	-10789
▁metres	-10790
eous	-10791
ancial	-10792
EST	-10793
igration	-10794
▁OR	-10795
▁boards	-10796
alo	-10797
▁Represent	-10798
bro	-10799
▁apple	-10800
▁diagnose	-10801
pm	-10802
▁belonging	-10803
▁moments	-10804
▁illustrate	-10805
ocaust	-10806
▁phases	-10807
security	-10808
yo	-10809
▁chip	-10810
▁caffe	-10811
ountered	-10812
▁metap	-10813
▁abroad	-10814
acher	-10815
▁Ban	-10816
▁attracted	-10817
▁reserve	-10818
▁Thank	-10819
▁dispar	-10820
▁marginal	-10821
Se	-10822
▁genetically	-10823
▁Perform	-10824
▁WH	-10825
▁Love	-10826
▁precious	-10827
▁Tri	-10828
uty	-10829
▁disposal	-10830
asa	-10831
▁crash	-10832
▁blacks	-10833
▁Buddhist	-10834
▁Cro	-10835
▁incorrect	-10836
▁hills	-10837
▁IC	-10838
hops	-10839
▁explos	-10840
upp	-10841
▁Miller	-10842
▁Video	-10843
▁incredibly	-10844
▁unemployment	-10845
▁loans	-10846
▁Bridge	-10847
▁Syria	-10848
▁Arthur	-10849
▁fifty	-10850
FS	-10851
▁ma	-10852
onald	-10853
▁conservative	-10854
▁tang	-10855
▁Barb	-10856
▁dece	-10857
arest	-10858
tte	-10859
▁aluminum	-10860
▁encountered	-10861
▁damaging	-10862
▁predominant	-10863
▁preschool	-10864
▁nineteenth	-10865
▁extraction	-10866
▁transf	-10867
erness	-10868
▁Ra	-10869
eared	-10870
igma	-10871
iolet	-10872
!)	-10873
▁unity	-10874
who	-10875
▁Mountains	-10876
lear	-10877
▁Monitor	-10878
▁repeatedly	-10879
▁strand	-10880
▁conversations	-10881
▁admitted	-10882
Re	-10883
iki	-10884
▁Muh	-10885
▁timber	-10886
uster	-10887
▁Movement	-10888
▁Ger	-10889
▁mounted	-10890
▁Advanced	-10891
▁realistic	-10892
▁bugs	-10893
▁pitch	-10894
run	-10895
there	-10896
▁limiting	-10897
▁dinner	-10898
▁recycled	-10899
▁festival	-10900
▁herbs	-10901
▁Arist	-10902
▁catast	-10903
▁EM	-10904
▁prolonged	-10905
▁sket	-10906
▁Inv	-10907
▁recovered	-10908
▁picked	-10909
▁digit	-10910
▁entity	-10911
▁ignored	-10912
▁sorts	-10913
▁Imper	-10914
▁satellites	-10915
▁Arabic	-10916
▁larvae	-10917
ikes	-10918
▁Census	-10919
▁Captain	-10920
ordan	-10921
▁Choose	-10922
▁gastro	-10923
▁wra	-10924
▁Series	-10925
ishers	-10926
iro	-10927
▁arbit	-10928
▁menu	-10929
,'	-10930
▁ric	-10931
▁Hispan	-10932
▁manufactured	-10933
▁surre	-10934
▁shield	-10935
▁frequencies	-10936
▁behalf	-10937
▁Roosevelt	-10938
▁gums	-10939
arth	-10940
▁precipitation	-10941
otyp	-10942
▁Overall	-10943
▁Jup	-10944
▁passive	-10945
▁quad	-10946
▁telephone	-10947
restrial	-10948
thening	-10949
▁machinery	-10950
▁Lu	-10951
▁SM	-10952
▁departments	-10953
▁chains	-10954
▁determines	-10955
anna	-10956
▁organize	-10957
▁Ark	-10958
▁disput	-10959
▁accessed	-10960
▁Collect	-10961
▁UC	-10962
▁colleges	-10963
atching	-10964
▁bowel	-10965
▁respective	-10966
▁viable	-10967
▁groundwater	-10968
▁devastating	-10969
▁galaxy	-10970
▁soap	-10971
▁Was	-10972
iating	-10973
▁seeks	-10974
▁pathway	-10975
▁Creative	-10976
▁relieve	-10977
▁texture	-10978
▁ic	-10979
▁Ethiop	-10980
▁makers	-10981
▁bands	-10982
rac	-10983
▁fears	-10984
▁cha	-10985
▁Moh	-10986
▁deals	-10987
▁Buddha	-10988
▁protocols	-10989
▁scenes	-10990
▁Political	-10991
wall	-10992
▁programmes	-10993
▁telescope	-10994
ausea	-10995
▁flesh	-10996
▁Archae	-10997
▁SO	-10998
▁Cultural	-10999
▁Rout	-11000
▁spell	-11001
▁Cham	-11002
▁Philippines	-11003
▁alien	-11004
▁Imm	-11005
▁Communication	-11006
▁portions	-11007
▁philosophical	-11008
▁physiological	-11009
▁conclude	-11010
▁Mission	-11011
▁Nig	-11012
▁epidem	-11013
▁guides	-11014
▁disasters	-11015
essee	-11016
▁degradation	-11017
▁Draw	-11018
aki	-11019
▁decomp	-11020
▁yeast	-11021
▁attempting	-11022
▁substitute	-11023
▁feas	-11024
▁Pow	-11025
▁Bru	-11026
human	-11027
▁FA	-11028
▁cooked	-11029
▁syll	-11030
▁appetite	-11031
▁architectural	-11032
▁mud	-11033
▁surveillance	-11034
▁Related	-11035
▁educate	-11036
empl	-11037
rup	-11038
▁Compar	-11039
▁galaxies	-11040
ructive	-11041
▁induced	-11042
▁quote	-11043
▁inver	-11044
▁dismiss	-11045
▁atom	-11046
▁Fle	-11047
▁shipping	-11048
▁geographic	-11049
irs	-11050
ogene	-11051
▁Kat	-11052
▁Chap	-11053
isphere	-11054
▁shopping	-11055
iley	-11056
▁meets	-11057
▁Relations	-11058
ochemical	-11059
instein	-11060
▁EN	-11061
▁Diagn	-11062
▁beta	-11063
aug	-11064
▁Effects	-11065
▁compact	-11066
▁curious	-11067
▁specialists	-11068
▁Albert	-11069
▁stuck	-11070
eland	-11071
▁comparable	-11072
▁Pict	-11073
iplinary	-11074
plan	-11075
abetic	-11076
egu	-11077
▁lig	-11078
inflammatory	-11079
▁wealthy	-11080
▁rises	-11081
▁headaches	-11082
▁graphic	-11083
bral	-11084
▁Dor	-11085
▁powered	-11086
▁prophe	-11087
HT	-11088
▁Louisiana	-11089
▁Sustainable	-11090
cm	-11091
▁Bon	-11092
▁overse	-11093
▁traveled	-11094
▁Amendment	-11095
▁march	-11096
▁Edition	-11097
makers	-11098
▁Freder	-11099
▁skilled	-11100
osex	-11101
▁vow	-11102
▁warmer	-11103
eld	-11104
▁abdominal	-11105
▁Analy	-11106
host	-11107
bestos	-11108
▁mainstream	-11109
▁viewing	-11110
▁beds	-11111
imedia	-11112
▁Pit	-11113
▁Therapy	-11114
▁furniture	-11115
▁electrom	-11116
▁Mu	-11117
dis	-11118
hour	-11119
▁farmer	-11120
orie	-11121
▁extends	-11122
▁crossing	-11123
arding	-11124
ibration	-11125
▁Nat	-11126
▁aquatic	-11127
▁participated	-11128
▁Rod	-11129
▁dign	-11130
▁neighbors	-11131
▁aids	-11132
natural	-11133
▁Vo	-11134
▁indicator	-11135
▁globally	-11136
▁shortly	-11137
▁Site	-11138
▁beer	-11139
ibli	-11140
▁flowing	-11141
▁flies	-11142
imeter	-11143
▁stack	-11144
These	-11145
▁Facts	-11146
rying	-11147
▁Treaty	-11148
inton	-11149
ilton	-11150
▁mutual	-11151
▁costly	-11152
▁grave	-11153
▁compassion	-11154
▁Had	-11155
onto	-11156
opathy	-11157
▁hind	-11158
▁nurses	-11159
lessly	-11160
▁tunnel	-11161
▁football	-11162
▁forb	-11163
apore	-11164
▁careg	-11165
▁shadow	-11166
rets	-11167
▁Nich	-11168
▁angry	-11169
▁gaining	-11170
▁outdoors	-11171
▁pipes	-11172
isible	-11173
▁lith	-11174
▁battles	-11175
▁Virt	-11176
▁anniversary	-11177
▁designers	-11178
ogl	-11179
▁Visual	-11180
▁Saturday	-11181
▁examining	-11182
▁afternoon	-11183
▁campaigns	-11184
▁LG	-11185
oxide	-11186
▁archaeological	-11187
▁kin	-11188
▁pupp	-11189
▁pollen	-11190
▁uter	-11191
▁automatic	-11192
ococc	-11193
▁unnecessary	-11194
▁Archived	-11195
▁Hunt	-11196
sur	-11197
▁whales	-11198
▁pharmac	-11199
▁sau	-11200
▁documentation	-11201
father	-11202
▁Observ	-11203
▁Defense	-11204
▁datas	-11205
lyn	-11206
monary	-11207
▁prostate	-11208
▁methodology	-11209
▁node	-11210
▁cavity	-11211
▁clusters	-11212
▁Pa	-11213
▁plaque	-11214
▁collaborative	-11215
▁ingredient	-11216
govern	-11217
▁singing	-11218
▁carcin	-11219
opt	-11220
etheless	-11221
▁inherited	-11222
arse	-11223
▁Tips	-11224
▁interviews	-11225
▁adul	-11226
▁needle	-11227
▁tech	-11228
▁Bob	-11229
rage	-11230
▁bom	-11231
▁Ages	-11232
▁pec	-11233
▁yoga	-11234
▁belt	-11235
▁unto	-11236
▁cheaper	-11237
▁Clark	-11238
▁bor	-11239
▁PMID	-11240
▁Hawaii	-11241
▁Smart	-11242
▁residence	-11243
▁operators	-11244
▁Dur	-11245
▁ceremony	-11246
▁snake	-11247
▁conjunction	-11248
▁interpreted	-11249
▁defeated	-11250
▁Freedom	-11251
TER	-11252
▁quantitative	-11253
▁pulled	-11254
▁promoted	-11255
▁pollutants	-11256
▁assignments	-11257
▁compensation	-11258
keys	-11259
▁enterprise	-11260
▁biomass	-11261
▁Tibet	-11262
▁verbal	-11263
▁fulfill	-11264
▁republic	-11265
▁meanings	-11266
▁motivated	-11267
sl	-11268
▁Military	-11269
estion	-11270
▁paths	-11271
▁Jupiter	-11272
▁odd	-11273
▁considerations	-11274
▁mutation	-11275
▁Foreign	-11276
▁analyzing	-11277
▁Tennessee	-11278
▁immense	-11279
▁dictionary	-11280
▁Credit	-11281
▁Utah	-11282
▁practitioners	-11283
▁religions	-11284
▁fleet	-11285
▁voices	-11286
ilty	-11287
▁guided	-11288
▁Bot	-11289
▁Stress	-11290
ographer	-11291
elson	-11292
▁resilience	-11293
▁initiated	-11294
illy	-11295
▁hearts	-11296
▁dimension	-11297
▁discusses	-11298
▁poisoning	-11299
sun	-11300
▁Maybe	-11301
▁distress	-11302
▁responded	-11303
izational	-11304
▁dishes	-11305
▁bold	-11306
▁affil	-11307
▁Argent	-11308
▁smallest	-11309
▁Dat	-11310
▁disin	-11311
▁obsc	-11312
▁Personal	-11313
ltry	-11314
▁alphabet	-11315
▁coin	-11316
asting	-11317
olly	-11318
▁united	-11319
▁Hal	-11320
▁efficacy	-11321
▁Summer	-11322
▁vapor	-11323
acular	-11324
▁worksheet	-11325
warf	-11326
osaurs	-11327
▁enters	-11328
▁Pas	-11329
▁announce	-11330
risk	-11331
▁historically	-11332
▁Tai	-11333
lastname	-11334
▁rescue	-11335
▁patch	-11336
non	-11337
▁decent	-11338
▁descriptions	-11339
▁que	-11340
▁propos	-11341
▁static	-11342
agus	-11343
laration	-11344
▁resur	-11345
uese	-11346
▁Raj	-11347
▁Philip	-11348
esy	-11349
▁Ball	-11350
▁acquisition	-11351
▁Previous	-11352
▁tremendous	-11353
▁absent	-11354
▁Dub	-11355
hr	-11356
▁advised	-11357
oub	-11358
▁Nort	-11359
ushes	-11360
▁Golden	-11361
▁fails	-11362
▁Team	-11363
▁arrested	-11364
iser	-11365
uana	-11366
▁checked	-11367
Con	-11368
inced	-11369
▁Build	-11370
etry	-11371
▁breathe	-11372
▁Fisher	-11373
▁fled	-11374
▁Around	-11375
▁Gil	-11376
▁alb	-11377
▁possession	-11378
▁grants	-11379
conf	-11380
▁bay	-11381
▁Confederate	-11382
▁retire	-11383
▁accused	-11384
shore	-11385
▁oxide	-11386
▁reads	-11387
▁drawings	-11388
▁overt	-11389
▁Clear	-11390
▁endeav	-11391
▁Impact	-11392
orb	-11393
▁Sche	-11394
gr	-11395
▁Prize	-11396
▁Bird	-11397
▁rings	-11398
▁Boy	-11399
▁structured	-11400
▁digestion	-11401
▁belongs	-11402
▁consp	-11403
▁cer	-11404
weet	-11405
▁corruption	-11406
keley	-11407
▁angles	-11408
▁Lie	-11409
Do	-11410
good	-11411
ilateral	-11412
▁GP	-11413
▁Publishing	-11414
▁pushing	-11415
▁personally	-11416
▁persec	-11417
ESS	-11418
▁Lady	-11419
▁Issue	-11420
▁drag	-11421
▁beef	-11422
uming	-11423
▁consisted	-11424
▁Resource	-11425
▁speaks	-11426
▁satisfaction	-11427
▁Includ	-11428
▁Independence	-11429
▁murd	-11430
abama	-11431
ulative	-11432
▁colours	-11433
fn	-11434
▁contracts	-11435
▁tempt	-11436
oen	-11437
gic	-11438
▁brick	-11439
▁entities	-11440
▁ren	-11441
▁imbal	-11442
▁receptor	-11443
▁Chen	-11444
▁Anti	-11445
▁dual	-11446
▁empir	-11447
white	-11448
▁Exercise	-11449
▁Bah	-11450
▁episode	-11451
▁Tal	-11452
▁fungi	-11453
▁checking	-11454
▁astronaut	-11455
One	-11456
▁counting	-11457
py	-11458
▁convention	-11459
▁Everyone	-11460
▁imposed	-11461
olas	-11462
VD	-11463
▁staying	-11464
▁slide	-11465
onge	-11466
▁traged	-11467
▁Kenya	-11468
▁Corporation	-11469
pur	-11470
▁regulated	-11471
▁SE	-11472
▁chim	-11473
▁smok	-11474
▁chips	-11475
▁Memorial	-11476
iotics	-11477
aret	-11478
▁Chile	-11479
▁Norway	-11480
▁SD	-11481
▁substantially	-11482
▁forty	-11483
▁basics	-11484
▁fee	-11485
activity	-11486
vity	-11487
▁photography	-11488
Us	-11489
▁cher	-11490
away	-11491
▁Tok	-11492
▁replacing	-11493
otechnology	-11494
▁gifts	-11495
▁neighbour	-11496
arma	-11497
▁Afghanistan	-11498
they	-11499
▁Pil	-11500
▁BBC	-11501
▁interrupt	-11502
▁strengths	-11503
rology	-11504
urred	-11505
▁Fri	-11506
▁accumulation	-11507
▁Command	-11508
▁caffeine	-11509
▁circuits	-11510
cr	-11511
look	-11512
▁profits	-11513
ART	-11514
weed	-11515
▁survivors	-11516
▁denied	-11517
▁NC	-11518
▁Benefits	-11519
appy	-11520
lades	-11521
PP	-11522
▁relates	-11523
▁cannab	-11524
lation	-11525
link	-11526
olith	-11527
▁gross	-11528
▁closest	-11529
▁blame	-11530
▁bases	-11531
acre	-11532
▁volcanic	-11533
▁integrate	-11534
▁Eating	-11535
▁defect	-11536
▁Rap	-11537
▁pressures	-11538
▁followers	-11539
▁highlighted	-11540
▁fluctu	-11541
▁Market	-11542
▁promised	-11543
▁governance	-11544
▁pix	-11545
▁darkness	-11546
ewater	-11547
angers	-11548
▁boats	-11549
▁Radio	-11550
▁ignor	-11551
▁Planning	-11552
▁Cert	-11553
itored	-11554
▁Sound	-11555
▁Lawrence	-11556
▁convinced	-11557
▁dreams	-11558
▁Persian	-11559
▁heated	-11560
▁glands	-11561
olescent	-11562
▁carp	-11563
▁rou	-11564
▁builds	-11565
eterm	-11566
▁cod	-11567
▁Person	-11568
▁Tele	-11569
ilib	-11570
▁membership	-11571
▁arteries	-11572
▁mines	-11573
▁symmet	-11574
▁Diego	-11575
▁transparent	-11576
!"	-11577
spe	-11578
▁Hong	-11579
▁prosec	-11580
▁counts	-11581
▁deple	-11582
▁Almost	-11583
▁Hell	-11584
▁Executive	-11585
▁basket	-11586
letter	-11587
▁margin	-11588
lah	-11589
▁Aqu	-11590
▁aspir	-11591
▁hosts	-11592
▁Singapore	-11593
▁purple	-11594
▁obese	-11595
rasound	-11596
▁projected	-11597
▁thrown	-11598
▁alleged	-11599
IO	-11600
▁CL	-11601
kh	-11602
▁bars	-11603
▁defining	-11604
aund	-11605
▁movies	-11606
▁cro	-11607
attle	-11608
▁fragments	-11609
igs	-11610
tics	-11611
▁Indiana	-11612
whe	-11613
▁Adams	-11614
▁Block	-11615
▁Armen	-11616
▁Innov	-11617
▁rows	-11618
▁geometry	-11619
▁kidneys	-11620
▁Strateg	-11621
exts	-11622
▁licensed	-11623
▁fraud	-11624
▁epit	-11625
▁purchasing	-11626
induced	-11627
▁Bapt	-11628
▁abd	-11629
comp	-11630
▁commemor	-11631
▁publicly	-11632
▁Kentucky	-11633
▁Machine	-11634
▁butt	-11635
▁ions	-11636
▁insulation	-11637
annel	-11638
▁Lic	-11639
▁artery	-11640
▁Pra	-11641
olecular	-11642
▁grey	-11643
▁evac	-11644
▁Od	-11645
▁Getting	-11646
▁intervals	-11647
▁Together	-11648
▁Hind	-11649
▁Veter	-11650
▁magic	-11651
▁lunar	-11652
▁dirt	-11653
▁Commer	-11654
▁equity	-11655
▁indication	-11656
▁Declaration	-11657
▁geographical	-11658
estinal	-11659
icul	-11660
▁tear	-11661
▁basin	-11662
▁predictions	-11663
▁sore	-11664
▁raises	-11665
▁Definition	-11666
mouth	-11667
▁glory	-11668
▁locate	-11669
▁operator	-11670
▁vocal	-11671
▁hypertension	-11672
▁conceptual	-11673
▁volunteer	-11674
▁Astr	-11675
▁incidents	-11676
▁introducing	-11677
▁Pi	-11678
▁certified	-11679
▁headed	-11680
▁tender	-11681
▁admit	-11682
▁Historic	-11683
▁terminal	-11684
▁coding	-11685
graduate	-11686
▁scheduled	-11687
first	-11688
▁updates	-11689
▁Alabama	-11690
odge	-11691
▁practiced	-11692
plus	-11693
▁databases	-11694
roleum	-11695
abs	-11696
organisms	-11697
▁Maria	-11698
▁Rain	-11699
▁geography	-11700
▁Sri	-11701
▁talked	-11702
▁Appl	-11703
▁premature	-11704
▁railroad	-11705
▁Jordan	-11706
▁searc	-11707
▁Character	-11708
▁crowd	-11709
WS	-11710
▁Lesson	-11711
▁Gas	-11712
ationally	-11713
▁Answer	-11714
▁polymer	-11715
forward	-11716
▁explosion	-11717
access	-11718
urally	-11719
▁demonstration	-11720
▁navigation	-11721
▁corporations	-11722
▁Affairs	-11723
▁unclear	-11724
▁Prevent	-11725
▁nucleus	-11726
▁Rena	-11727
▁castle	-11728
▁dozen	-11729
▁seemingly	-11730
heres	-11731
▁servers	-11732
▁emergence	-11733
sets	-11734
screen	-11735
▁contexts	-11736
scill	-11737
jamin	-11738
iously	-11739
▁affirm	-11740
▁Intelligence	-11741
▁comprehension	-11742
asis	-11743
▁steep	-11744
▁asset	-11745
ikh	-11746
▁Holocaust	-11747
ulses	-11748
▁offspring	-11749
▁cyt	-11750
▁actors	-11751
athic	-11752
▁Broad	-11753
▁Mong	-11754
▁reliability	-11755
▁lapt	-11756
oths	-11757
▁Cust	-11758
▁weren	-11759
iencies	-11760
▁bottles	-11761
▁Nobel	-11762
▁Chemistry	-11763
▁Hope	-11764
▁Fat	-11765
▁whites	-11766
▁voters	-11767
▁agenda	-11768
▁Cru	-11769
▁Buddhism	-11770
▁hepatitis	-11771
▁Games	-11772
▁winning	-11773
▁mosquito	-11774
▁Collection	-11775
▁icon	-11776
▁virtue	-11777
fficiency	-11778
▁conform	-11779
▁Gro	-11780
▁radioactive	-11781
▁twentieth	-11782
▁Vill	-11783
▁mixing	-11784
▁enthusi	-11785
▁refriger	-11786
▁illustrations	-11787
▁Joh	-11788
▁AB	-11789
roach	-11790
▁Typically	-11791
▁menstru	-11792
held	-11793
▁throne	-11794
▁combining	-11795
▁informal	-11796
▁ED	-11797
▁caution	-11798
AV	-11799
ietal	-11800
▁monitored	-11801
aments	-11802
▁Kong	-11803
▁challenged	-11804
po	-11805
▁sacrific	-11806
pton	-11807
▁bes	-11808
▁peaceful	-11809
▁Turkish	-11810
aying	-11811
▁founding	-11812
▁interval	-11813
▁Eat	-11814
▁blockchain	-11815
▁Mechan	-11816
▁edited	-11817
▁Aboriginal	-11818
▁trap	-11819
▁Total	-11820
▁wax	-11821
▁pound	-11822
▁floating	-11823
▁constitu	-11824
▁declar	-11825
▁Evidence	-11826
▁Cab	-11827
▁labeled	-11828
▁mankind	-11829
▁explores	-11830
▁Castle	-11831
bits	-11832
▁completing	-11833
iffs	-11834
▁soldier	-11835
PC	-11836
▁omega	-11837
▁Country	-11838
▁Words	-11839
▁Staff	-11840
▁pigs	-11841
▁Upper	-11842
▁Images	-11843
iens	-11844
▁extending	-11845
▁brilliant	-11846
▁imported	-11847
aline	-11848
▁harass	-11849
▁Youth	-11850
▁biof	-11851
▁Fun	-11852
▁Dak	-11853
iasis	-11854
▁wounded	-11855
▁lacking	-11856
▁Stanford	-11857
▁resident	-11858
▁Whit	-11859
▁decreasing	-11860
▁wells	-11861
▁Banglades	-11862
▁observing	-11863
▁lact	-11864
▁cement	-11865
▁constitute	-11866
writing	-11867
▁investigations	-11868
▁drew	-11869
▁contra	-11870
▁explanations	-11871
hend	-11872
▁Coal	-11873
▁Portuguese	-11874
▁Alf	-11875
View	-11876
▁Tour	-11877
unciation	-11878
▁sphere	-11879
▁Financial	-11880
▁hate	-11881
▁inherit	-11882
▁Iowa	-11883
▁consultation	-11884
ARS	-11885
▁Syn	-11886
supp	-11887
▁compete	-11888
▁forgotten	-11889
▁rebell	-11890
fat	-11891
▁Ross	-11892
▁tribal	-11893
▁McG	-11894
▁Winter	-11895
▁passengers	-11896
▁constraints	-11897
cedented	-11898
opol	-11899
▁lean	-11900
▁releases	-11901
▁customs	-11902
▁breakfast	-11903
▁Prophet	-11904
▁practicing	-11905
▁Austria	-11906
▁worried	-11907
▁cows	-11908
ighters	-11909
▁Archives	-11910
▁HTML	-11911
▁intu	-11912
▁exert	-11913
▁Brook	-11914
▁stimulation	-11915
▁maternal	-11916
▁surviving	-11917
velation	-11918
orship	-11919
▁pulse	-11920
giving	-11921
▁lesser	-11922
▁sugars	-11923
▁Wy	-11924
▁ger	-11925
▁presenting	-11926
▁Ku	-11927
▁inadequate	-11928
▁wool	-11929
▁pharmaceutical	-11930
erves	-11931
▁Trib	-11932
▁suited	-11933
So	-11934
▁veterin	-11935
ovenant	-11936
▁Sci	-11937
▁sho	-11938
▁foundations	-11939
▁panic	-11940
tein	-11941
itzerland	-11942
five	-11943
▁CM	-11944
▁pod	-11945
venue	-11946
eton	-11947
▁Literature	-11948
▁melt	-11949
▁mul	-11950
▁ties	-11951
jan	-11952
amma	-11953
▁undertaken	-11954
▁Travel	-11955
▁missed	-11956
▁inquiry	-11957
angular	-11958
▁microbes	-11959
▁Box	-11960
▁bitter	-11961
▁Deb	-11962
▁intestinal	-11963
▁briefly	-11964
▁imagery	-11965
▁requests	-11966
▁breakdown	-11967
▁olive	-11968
▁tale	-11969
lav	-11970
▁melan	-11971
▁champ	-11972
▁exams	-11973
▁feat	-11974
▁advocate	-11975
▁titles	-11976
▁occasions	-11977
▁combinations	-11978
▁Population	-11979
arbon	-11980
▁tackle	-11981
▁marker	-11982
▁norms	-11983
▁fart	-11984
▁Agricultural	-11985
▁Cass	-11986
appropriate	-11987
▁voluntary	-11988
vance	-11989
▁Genesis	-11990
▁operates	-11991
▁Renaissance	-11992
▁eligible	-11993
▁Ay	-11994
parent	-11995
▁Sant	-11996
▁elevation	-11997
▁Imperial	-11998
▁shifts	-11999
▁intermediate	-12000
▁Diseases	-12001
▁symbolic	-12002
▁triggers	-12003
▁headache	-12004
incial	-12005
▁Democr	-12006
▁lining	-12007
mill	-12008
▁tries	-12009
idays	-12010
▁presidential	-12011
▁Les	-12012
▁gang	-12013
▁unders	-12014
zens	-12015
iciency	-12016
▁attending	-12017
ropolitan	-12018
▁saturated	-12019
▁altogether	-12020
▁inputs	-12021
▁socially	-12022
▁Ye	-12023
hot	-12024
adays	-12025
▁quot	-12026
▁disciplines	-12027
▁promotion	-12028
▁terrible	-12029
▁tomb	-12030
▁Immun	-12031
▁radar	-12032
asted	-12033
▁Tu	-12034
▁editing	-12035
▁loads	-12036
lementary	-12037
▁subur	-12038
▁slope	-12039
▁Regional	-12040
▁artifacts	-12041
▁slower	-12042
▁compression	-12043
▁preferences	-12044
UD	-12045
▁readings	-12046
▁bore	-12047
▁landf	-12048
▁scattered	-12049
▁Nurs	-12050
▁Game	-12051
▁Past	-12052
▁Kings	-12053
▁variability	-12054
▁Editor	-12055
▁melting	-12056
ingham	-12057
▁carrier	-12058
arity	-12059
▁provinces	-12060
▁graphics	-12061
En	-12062
▁Muhammad	-12063
▁Simon	-12064
▁testim	-12065
▁warrant	-12066
▁Pediatric	-12067
istence	-12068
▁preference	-12069
PM	-12070
▁Looking	-12071
▁dated	-12072
▁automated	-12073
▁ink	-12074
▁USDA	-12075
▁surely	-12076
▁Beyond	-12077
▁segments	-12078
was	-12079
iscal	-12080
▁modes	-12081
▁unpre	-12082
▁controversy	-12083
▁wast	-12084
▁caring	-12085
version	-12086
▁Tell	-12087
▁Si	-12088
▁extracted	-12089
▁bapt	-12090
pective	-12091
▁fees	-12092
▁Syndrome	-12093
arms	-12094
bet	-12095
▁trips	-12096
▁Protect	-12097
▁environmentally	-12098
▁Loc	-12099
▁CF	-12100
ova	-12101
▁antioxidants	-12102
backs	-12103
▁workshops	-12104
▁reforms	-12105
alin	-12106
▁Wolf	-12107
▁altitude	-12108
▁bike	-12109
▁commander	-12110
▁firstname	-12111
▁desirable	-12112
▁similarly	-12113
▁Frequ	-12114
▁lenses	-12115
▁Territ	-12116
▁nausea	-12117
▁assessing	-12118
▁cups	-12119
▁proclaim	-12120
immune	-12121
▁Dental	-12122
▁ozone	-12123
arb	-12124
▁confined	-12125
▁Visit	-12126
edge	-12127
▁tuber	-12128
nty	-12129
▁unhealthy	-12130
▁Capital	-12131
osures	-12132
tically	-12133
uate	-12134
▁jet	-12135
▁screw	-12136
▁implant	-12137
▁calculation	-12138
▁fool	-12139
▁advocates	-12140
▁median	-12141
▁interference	-12142
▁Workshe	-12143
▁Consequently	-12144
▁neurological	-12145
ierce	-12146
▁ecology	-12147
ilibrium	-12148
▁Ze	-12149
▁lesions	-12150
▁seats	-12151
▁Soil	-12152
▁deemed	-12153
▁careers	-12154
▁travels	-12155
letal	-12156
ochem	-12157
imity	-12158
▁delight	-12159
▁railway	-12160
▁crystal	-12161
▁Stock	-12162
▁legislative	-12163
▁notably	-12164
forestation	-12165
▁Brad	-12166
▁Benjamin	-12167
illery	-12168
▁banking	-12169
▁dysfunction	-12170
rosion	-12171
▁intact	-12172
▁Anth	-12173
▁Greeks	-12174
▁grat	-12175
▁todd	-12176
▁bridges	-12177
olia	-12178
▁divor	-12179
isa	-12180
▁Patrick	-12181
rubs	-12182
▁delayed	-12183
▁rating	-12184
▁remembered	-12185
▁emperor	-12186
atherine	-12187
ollo	-12188
▁Israeli	-12189
▁systemic	-12190
▁admin	-12191
▁legitimate	-12192
▁certification	-12193
aughters	-12194
▁noble	-12195
resistant	-12196
▁concentrate	-12197
▁Activity	-12198
▁Fortunately	-12199
▁spite	-12200
uma	-12201
matic	-12202
▁ok	-12203
▁Hans	-12204
erenn	-12205
▁eliminated	-12206
▁PS	-12207
▁bicy	-12208
▁currents	-12209
ni	-12210
▁relies	-12211
▁entertainment	-12212
▁prejud	-12213
ijuana	-12214
eu	-12215
▁journals	-12216
▁Link	-12217
rained	-12218
▁fundament	-12219
▁pronounced	-12220
▁GPS	-12221
▁worlds	-12222
▁Leaders	-12223
▁permits	-12224
▁Switzerland	-12225
▁juven	-12226
▁insufficient	-12227
▁EC	-12228
rosis	-12229
▁pneumonia	-12230
mus	-12231
asia	-12232
▁crossed	-12233
▁spont	-12234
▁recru	-12235
▁negatively	-12236
▁coronavirus	-12237
usions	-12238
▁modest	-12239
ulent	-12240
▁rum	-12241
▁modify	-12242
oT	-12243
▁MIT	-12244
▁Would	-12245
▁TB	-12246
▁realm	-12247
▁Ps	-12248
cription	-12249
▁impaired	-12250
▁chat	-12251
▁unprecedented	-12252
dam	-12253
resses	-12254
lict	-12255
….	-12256
Read	-12257
lux	-12258
▁Malays	-12259
▁Hou	-12260
▁closing	-12261
▁Mas	-12262
arp	-12263
▁Berkeley	-12264
▁chemotherapy	-12265
two	-12266
▁sensation	-12267
▁wires	-12268
▁modules	-12269
▁Success	-12270
▁newborn	-12271
▁silent	-12272
▁Maine	-12273
▁pole	-12274
▁dwell	-12275
▁gay	-12276
▁lateral	-12277
rea	-12278
hal	-12279
▁evaluating	-12280
▁Protocol	-12281
▁similarities	-12282
▁Prob	-12283
▁Syd	-12284
▁Anderson	-12285
cat	-12286
oping	-12287
▁Allen	-12288
▁separately	-12289
▁Orthodox	-12290
▁reinforce	-12291
▁interfere	-12292
▁depicted	-12293
eman	-12294
▁workforce	-12295
names	-12296
▁mast	-12297
▁retreat	-12298
▁Toronto	-12299
icut	-12300
▁mush	-12301
LC	-12302
wind	-12303
regn	-12304
▁creature	-12305
▁YO	-12306
▁strictly	-12307
▁agreements	-12308
▁truck	-12309
▁Parkinson	-12310
▁bulbs	-12311
▁Nigeria	-12312
▁behave	-12313
▁selecting	-12314
▁retrie	-12315
▁generator	-12316
▁freshwater	-12317
▁illum	-12318
▁Function	-12319
▁PV	-12320
km	-12321
▁withdrawal	-12322
▁Methods	-12323
▁recur	-12324
▁banned	-12325
▁Kind	-12326
▁Mathematics	-12327
▁lets	-12328
▁Upon	-12329
▁Focus	-12330
▁priests	-12331
▁safegu	-12332
▁Anton	-12333
▁inability	-12334
▁Torah	-12335
▁Ara	-12336
▁Hun	-12337
▁obstacles	-12338
▁dependence	-12339
dig	-12340
yers	-12341
▁registration	-12342
▁ly	-12343
▁bowl	-12344
▁unst	-12345
rans	-12346
▁ruler	-12347
amel	-12348
▁secular	-12349
▁extinct	-12350
itar	-12351
▁continually	-12352
xic	-12353
▁divisions	-12354
▁loaded	-12355
▁probe	-12356
▁freed	-12357
▁wetlands	-12358
energy	-12359
▁certificate	-12360
▁Luke	-12361
kg	-12362
▁impacted	-12363
▁Reference	-12364
▁Bed	-12365
post	-12366
▁Kit	-12367
▁tet	-12368
▁glasses	-12369
▁Eventually	-12370
▁Newton	-12371
▁synthes	-12372
▁perceive	-12373
May	-12374
▁artic	-12375
▁longest	-12376
▁triggered	-12377
reas	-12378
▁proc	-12379
▁sword	-12380
intestinal	-12381
▁navigate	-12382
▁accommodate	-12383
bled	-12384
▁Accessed	-12385
MD	-12386
▁retained	-12387
erto	-12388
▁AF	-12389
▁Douglas	-12390
▁airpl	-12391
▁Testing	-12392
▁Alcohol	-12393
▁lighter	-12394
▁individ	-12395
▁Cuba	-12396
▁stayed	-12397
▁Compan	-12398
▁Ros	-12399
pers	-12400
▁descendants	-12401
owed	-12402
▁fired	-12403
▁exclusive	-12404
roups	-12405
ressions	-12406
▁activists	-12407
▁titled	-12408
ocytes	-12409
▁thumb	-12410
▁plastics	-12411
▁pointing	-12412
▁Kir	-12413
▁bats	-12414
▁Share	-12415
▁brut	-12416
vo	-12417
▁Gi	-12418
▁scarce	-12419
▁Wel	-12420
▁parasites	-12421
ixed	-12422
▁races	-12423
▁inclusive	-12424
▁Medic	-12425
▁fungus	-12426
▁veins	-12427
▁placement	-12428
▁Ground	-12429
▁inspire	-12430
▁sor	-12431
ths	-12432
▁Aer	-12433
▁activated	-12434
▁explicitly	-12435
▁peas	-12436
▁Easter	-12437
bird	-12438
lies	-12439
obacter	-12440
▁uncons	-12441
▁votes	-12442
itational	-12443
oard	-12444
▁fossils	-12445
zech	-12446
▁Course	-12447
▁Bangladesh	-12448
▁Dog	-12449
▁poultry	-12450
▁indo	-12451
▁standardized	-12452
▁lawn	-12453
ambo	-12454
▁potent	-12455
▁naval	-12456
ellar	-12457
▁statue	-12458
cery	-12459
▁erad	-12460
▁scrap	-12461
▁worms	-12462
olutions	-12463
▁fits	-12464
▁Authority	-12465
▁teachings	-12466
▁wounds	-12467
▁edit	-12468
▁underm	-12469
▁toilet	-12470
▁combustion	-12471
▁citizenship	-12472
▁remedy	-12473
▁dispute	-12474
▁functionality	-12475
▁collaps	-12476
▁revised	-12477
▁antioxidant	-12478
▁impairment	-12479
▁screens	-12480
opter	-12481
heum	-12482
itives	-12483
▁Recently	-12484
arency	-12485
eps	-12486
okes	-12487
▁autonomous	-12488
▁warned	-12489
▁upset	-12490
▁judges	-12491
▁Term	-12492
▁cultivation	-12493
▁Skills	-12494
▁identifies	-12495
▁footprint	-12496
▁knock	-12497
▁Southeast	-12498
()	-12499
▁consolid	-12500
▁Regular	-12501
▁inval	-12502
▁Tech	-12503
▁Better	-12504
▁lasted	-12505
▁activation	-12506
▁Conserv	-12507
▁bip	-12508
▁outstanding	-12509
▁legally	-12510
▁strikes	-12511
▁employer	-12512
▁algebra	-12513
▁mechanics	-12514
▁checks	-12515
▁rehabilitation	-12516
▁Ow	-12517
▁eliminating	-12518
▁Kal	-12519
▁stir	-12520
▁template	-12521
▁critics	-12522
▁harmony	-12523
▁landscapes	-12524
▁tablets	-12525
▁charts	-12526
▁warfare	-12527
Eng	-12528
uated	-12529
▁Mosc	-12530
▁destructive	-12531
▁extensively	-12532
▁joining	-12533
wealth	-12534
▁Beach	-12535
▁offset	-12536
▁snakes	-12537
▁Sarah	-12538
▁Fif	-12539
▁transcript	-12540
▁jurisdiction	-12541
▁strip	-12542
ometric	-12543
▁crafts	-12544
▁positively	-12545
▁Skin	-12546
▁DS	-12547
▁silicon	-12548
▁comprised	-12549
▁surgeon	-12550
rish	-12551
ryption	-12552
▁toll	-12553
▁monetary	-12554
▁Sin	-12555
▁coupled	-12556
▁luck	-12557
▁Esp	-12558
eded	-12559
▁sake	-12560
▁examines	-12561
▁ty	-12562
rade	-12563
▁praise	-12564
▁patches	-12565
▁Initiative	-12566
Pe	-12567
▁sink	-12568
▁inspection	-12569
▁intens	-12570
▁burial	-12571
▁transported	-12572
▁Night	-12573
third	-12574
▁ank	-12575
▁Causes	-12576
▁mitochond	-12577
▁layout	-12578
▁billions	-12579
.(	-12580
▁Song	-12581
▁Dal	-12582
▁Technical	-12583
▁threatening	-12584
▁strat	-12585
▁Aristot	-12586
▁achievements	-12587
▁directory	-12588
▁blocked	-12589
▁desper	-12590
Com	-12591
▁seas	-12592
ashing	-12593
▁guilty	-12594
rock	-12595
▁generates	-12596
▁conception	-12597
▁Ms	-12598
▁]	-12599
==	-12600
▁Einstein	-12601
▁microbial	-12602
▁flowering	-12603
▁trapped	-12604
▁Nuclear	-12605
dy	-12606
▁competing	-12607
▁grab	-12608
▁acknowledged	-12609
▁gel	-12610
phen	-12611
▁lux	-12612
▁surroundings	-12613
▁Police	-12614
▁binary	-12615
▁mosquitoes	-12616
▁outbreaks	-12617
▁regards	-12618
ucks	-12619
esteem	-12620
▁transaction	-12621
▁Improve	-12622
▁cous	-12623
▁Lanc	-12624
▁Viol	-12625
▁displace	-12626
▁oct	-12627
▁fusion	-12628
▁cock	-12629
▁pyram	-12630
aran	-12631
▁ore	-12632
▁yog	-12633
four	-12634
fortable	-12635
▁phon	-12636
▁Sel	-12637
lahoma	-12638
▁deployed	-12639
▁Fried	-12640
▁refined	-12641
▁considers	-12642
▁autumn	-12643
▁Pack	-12644
▁VI	-12645
▁Burn	-12646
inar	-12647
raul	-12648
▁Problems	-12649
▁packed	-12650
▁inevitable	-12651
▁sends	-12652
▁Roc	-12653
▁weeds	-12654
▁jack	-12655
▁eternal	-12656
▁vic	-12657
▁traces	-12658
▁prosperity	-12659
▁gallons	-12660
proof	-12661
▁coating	-12662
Col	-12663
▁Determ	-12664
vas	-12665
▁breeds	-12666
▁alleg	-12667
▁Excel	-12668
▁Ukraine	-12669
person	-12670
▁trains	-12671
▁Award	-12672
▁bod	-12673
ennis	-12674
▁innovations	-12675
▁damages	-12676
▁Annual	-12677
▁millenn	-12678
ugar	-12679
▁Could	-12680
▁diesel	-12681
▁Imagine	-12682
otional	-12683
▁Sydney	-12684
unes	-12685
stan	-12686
▁Poor	-12687
▁Alliance	-12688
otive	-12689
ulture	-12690
▁Walter	-12691
aus	-12692
opor	-12693
amous	-12694
marks	-12695
▁therapist	-12696
esthes	-12697
▁disabled	-12698
▁microbi	-12699
▁Bud	-12700
rones	-12701
▁Oak	-12702
▁ranks	-12703
▁afterwards	-12704
▁potato	-12705
▁Bishop	-12706
▁dump	-12707
▁opio	-12708
▁damp	-12709
▁Publ	-12710
▁Hart	-12711
▁info	-12712
▁factories	-12713
▁Hamilton	-12714
▁economically	-12715
▁downt	-12716
▁settlements	-12717
▁Hyp	-12718
▁Protestant	-12719
▁Higher	-12720
▁critically	-12721
▁Denmark	-12722
▁ate	-12723
▁Philosophy	-12724
▁pour	-12725
▁orth	-12726
▁planes	-12727
▁MRI	-12728
▁Return	-12729
chi	-12730
▁isot	-12731
▁’	-12732
hematic	-12733
oriented	-12734
▁paste	-12735
▁dissolved	-12736
▁watershed	-12737
▁subjected	-12738
bone	-12739
▁rival	-12740
Qu	-12741
▁Chronic	-12742
OV	-12743
▁Wright	-12744
▁Heat	-12745
onduct	-12746
idth	-12747
▁Swedish	-12748
▁besides	-12749
▁outlined	-12750
▁stretching	-12751
▁aug	-12752
▁Loss	-12753
▁Gand	-12754
▁sixth	-12755
nee	-12756
▁hungry	-12757
▁soda	-12758
mates	-12759
▁Haz	-12760
▁floods	-12761
▁invisible	-12762
▁cruel	-12763
▁intrig	-12764
▁Industry	-12765
▁uncommon	-12766
itime	-12767
▁odds	-12768
▁TR	-12769
▁passages	-12770
lan	-12771
olis	-12772
aga	-12773
▁asbestos	-12774
▁Dick	-12775
▁promises	-12776
▁appreciation	-12777
▁Pos	-12778
▁retention	-12779
▁Vacc	-12780
▁EV	-12781
▁whale	-12782
▁recognised	-12783
▁evolve	-12784
▁Ts	-12785
▁Emergency	-12786
htm	-12787
▁Moore	-12788
rehend	-12789
▁Beng	-12790
▁publishing	-12791
▁ports	-12792
▁cater	-12793
▁plural	-12794
▁grasp	-12795
▁Nan	-12796
ben	-12797
only	-12798
▁parish	-12799
▁witnessed	-12800
▁centres	-12801
▁Notes	-12802
▁plug	-12803
▁Hug	-12804
▁drilling	-12805
eech	-12806
adi	-12807
▁Weight	-12808
oz	-12809
▁individually	-12810
▁disse	-12811
imination	-12812
rophy	-12813
ORD	-12814
Tube	-12815
▁Basin	-12816
▁disappeared	-12817
▁linguistic	-12818
idel	-12819
imb	-12820
agu	-12821
▁somehow	-12822
▁inserted	-12823
▁instructional	-12824
▁bench	-12825
▁hoped	-12826
▁rolling	-12827
▁primitive	-12828
▁Title	-12829
▁gardening	-12830
▁shooting	-12831
▁purely	-12832
▁cel	-12833
▁toxicity	-12834
▁Biological	-12835
▁watched	-12836
▁intestine	-12837
▁Explain	-12838
▁baseline	-12839
aron	-12840
▁cervical	-12841
GA	-12842
▁Multiple	-12843
▁exploitation	-12844
▁rhet	-12845
hol	-12846
pose	-12847
▁Universe	-12848
▁vulnerability	-12849
▁myths	-12850
▁transit	-12851
FA	-12852
Im	-12853
▁temporal	-12854
▁Dry	-12855
▁compromise	-12856
▁maintains	-12857
▁municipal	-12858
▁cultivated	-12859
lip	-12860
▁solved	-12861
expl	-12862
▁q	-12863
▁tutorial	-12864
izoph	-12865
▁IL	-12866
▁electromagnetic	-12867
▁Bitcoin	-12868
▁sanct	-12869
▁restaurants	-12870
▁Moscow	-12871
▁Palestine	-12872
▁adjusted	-12873
▁traumatic	-12874
▁Software	-12875
▁Too	-12876
▁harvesting	-12877
▁seaf	-12878
▁failing	-12879
▁prediction	-12880
▁Oklahoma	-12881
▁Snow	-12882
▁rash	-12883
▁struggles	-12884
▁Brig	-12885
▁sequencing	-12886
▁pumps	-12887
▁cram	-12888
▁prototype	-12889
Can	-12890
▁frames	-12891
▁Camb	-12892
wich	-12893
▁coh	-12894
▁stamp	-12895
▁requested	-12896
▁sufficiently	-12897
▁prelim	-12898
▁quoted	-12899
▁McK	-12900
▁Connecticut	-12901
▁earthquakes	-12902
▁enrich	-12903
ogenesis	-12904
▁PRO	-12905
▁drill	-12906
avy	-12907
▁weed	-12908
imore	-12909
powered	-12910
▁abdomen	-12911
▁tomatoes	-12912
dem	-12913
▁Mun	-12914
▁unsu	-12915
ilies	-12916
cerpt	-12917
▁untreated	-12918
▁accordingly	-12919
▁dos	-12920
▁jun	-12921
▁Der	-12922
Cs	-12923
▁Economics	-12924
▁Professional	-12925
▁Fox	-12926
▁folks	-12927
▁tears	-12928
▁hasn	-12929
▁priorit	-12930
threat	-12931
▁Quant	-12932
▁publish	-12933
Te	-12934
▁oak	-12935
▁designer	-12936
▁sour	-12937
▁shells	-12938
▁instructor	-12939
▁voy	-12940
▁schemes	-12941
lihood	-12942
▁Dark	-12943
▁negotiations	-12944
PubMed	-12945
ili	-12946
don	-12947
▁consec	-12948
▁Plus	-12949
pin	-12950
pher	-12951
▁attribute	-12952
▁amph	-12953
articles	-12954
▁stain	-12955
▁ventilation	-12956
▁walked	-12957
▁Eu	-12958
aman	-12959
educ	-12960
Ab	-12961
▁biblical	-12962
▁Region	-12963
▁Pharm	-12964
▁cum	-12965
▁Proceed	-12966
▁delicate	-12967
▁Summary	-12968
▁Legisl	-12969
mind	-12970
▁unconscious	-12971
izophren	-12972
▁ram	-12973
▁liber	-12974
▁CON	-12975
▁Cand	-12976
▁embrace	-12977
▁Simple	-12978
▁variants	-12979
▁mobil	-12980
▁episodes	-12981
▁SA	-12982
uncture	-12983
▁dozens	-12984
▁recommendation	-12985
alling	-12986
▁Activities	-12987
▁Weather	-12988
▁monarch	-12989
▁temples	-12990
▁valued	-12991
PE	-12992
▁ana	-12993
▁ket	-12994
▁illustrates	-12995
bin	-12996
▁bon	-12997
▁cortex	-12998
▁microscope	-12999
len	-13000
erk	-13001
▁Magazine	-13002
▁recipe	-13003
▁clinic	-13004
▁problematic	-13005
oglob	-13006
▁LGBT	-13007
▁failures	-13008
▁strings	-13009
ige	-13010
▁organizational	-13011
▁preliminary	-13012
▁forcing	-13013
engu	-13014
▁triangle	-13015
aza	-13016
ignty	-13017
▁resolved	-13018
▁arrangements	-13019
▁Apart	-13020
note	-13021
▁excluded	-13022
▁Saturn	-13023
▁Gram	-13024
▁Lakes	-13025
▁Stage	-13026
▁gently	-13027
▁appliances	-13028
▁Venus	-13029
som	-13030
driven	-13031
ensing	-13032
▁questionna	-13033
▁investigating	-13034
▁Salt	-13035
▁Czech	-13036
▁crystals	-13037
rost	-13038
▁Problem	-13039
▁piano	-13040
▁permanently	-13041
▁True	-13042
▁Ever	-13043
pler	-13044
▁Members	-13045
retion	-13046
ulatory	-13047
▁astronomers	-13048
▁anxious	-13049
▁Extension	-13050
▁thou	-13051
▁Traditional	-13052
▁teenagers	-13053
▁enroll	-13054
▁posture	-13055
ierra	-13056
▁delivering	-13057
▁mant	-13058
bound	-13059
ioned	-13060
▁mas	-13061
▁Ltd	-13062
▁investing	-13063
▁wellbeing	-13064
▁Autom	-13065
▁succ	-13066
▁energ	-13067
▁wheels	-13068
▁spirits	-13069
ancies	-13070
▁dwarf	-13071
▁stocks	-13072
▁handful	-13073
▁satisfied	-13074
▁diamond	-13075
▁Howard	-13076
ardo	-13077
▁Gospel	-13078
test	-13079
▁Nev	-13080
▁formerly	-13081
▁nasal	-13082
▁queen	-13083
▁monaster	-13084
▁inventory	-13085
▁terrain	-13086
▁orch	-13087
▁emphasize	-13088
adows	-13089
▁apples	-13090
▁tourists	-13091
month	-13092
pres	-13093
acerb	-13094
▁oscill	-13095
▁compiled	-13096
rots	-13097
ository	-13098
uliar	-13099
atics	-13100
▁stopping	-13101
▁Fest	-13102
▁Live	-13103
▁attachment	-13104
▁Graph	-13105
▁OK	-13106
imental	-13107
▁berries	-13108
▁Ky	-13109
▁assass	-13110
path	-13111
esar	-13112
some	-13113
▁gasoline	-13114
roscience	-13115
▁matching	-13116
▁intim	-13117
ante	-13118
▁Bron	-13119
▁connects	-13120
artz	-13121
sels	-13122
tech	-13123
icates	-13124
▁Europeans	-13125
othel	-13126
▁dupl	-13127
▁nurt	-13128
ppers	-13129
redict	-13130
▁draws	-13131
▁Foot	-13132
▁lectures	-13133
▁utilizing	-13134
▁hes	-13135
▁Prep	-13136
▁metall	-13137
▁countless	-13138
▁perceptions	-13139
▁likes	-13140
▁bloom	-13141
▁uncomfortable	-13142
▁dot	-13143
▁wastewater	-13144
▁ants	-13145
▁friction	-13146
▁Hait	-13147
▁Napole	-13148
▁urgent	-13149
▁incentives	-13150
▁unions	-13151
▁Communist	-13152
▁peripheral	-13153
aux	-13154
Lear	-13155
▁landed	-13156
▁Alexand	-13157
onut	-13158
▁Citiz	-13159
▁deficit	-13160
▁infrared	-13161
▁balls	-13162
▁oun	-13163
▁suspended	-13164
▁approaching	-13165
▁strengthening	-13166
▁gluten	-13167
culosis	-13168
▁riding	-13169
▁dignity	-13170
amation	-13171
▁clot	-13172
▁obtaining	-13173
depth	-13174
ailand	-13175
▁drying	-13176
▁Harry	-13177
▁hub	-13178
▁rip	-13179
reach	-13180
ylene	-13181
ilingual	-13182
▁Joint	-13183
▁allev	-13184
▁palace	-13185
▁substrate	-13186
ania	-13187
▁respondents	-13188
▁rigid	-13189
▁lin	-13190
ector	-13191
▁sins	-13192
▁ambit	-13193
▁counterparts	-13194
arming	-13195
▁heading	-13196
coma	-13197
perature	-13198
▁passenger	-13199
emen	-13200
▁bureau	-13201
▁elite	-13202
▁seizures	-13203
ifiers	-13204
▁Disorder	-13205
PT	-13206
▁remedies	-13207
▁Wi	-13208
ocide	-13209
▁acet	-13210
▁presentations	-13211
ricular	-13212
▁Run	-13213
▁Partners	-13214
▁Ens	-13215
▁supportive	-13216
▁Christopher	-13217
▁goddess	-13218
AND	-13219
▁Complete	-13220
olk	-13221
▁feathers	-13222
▁mad	-13223
▁instinct	-13224
▁portable	-13225
▁tragedy	-13226
▁silk	-13227
▁asym	-13228
▁reconstruct	-13229
vasive	-13230
▁apost	-13231
▁Bos	-13232
▁secured	-13233
▁turtles	-13234
▁ammon	-13235
ynthesis	-13236
▁Various	-13237
SE	-13238
▁sulfur	-13239
▁demanding	-13240
▁Ord	-13241
▁Bull	-13242
▁descent	-13243
▁urinary	-13244
▁Eye	-13245
▁empathy	-13246
ocene	-13247
▁URL	-13248
▁da	-13249
▁priorities	-13250
▁Content	-13251
▁aggression	-13252
▁obligations	-13253
▁Juda	-13254
%),	-13255
illes	-13256
week	-13257
▁File	-13258
▁formats	-13259
▁troubles	-13260
second	-13261
▁pressing	-13262
▁parameter	-13263
▁immers	-13264
▁induce	-13265
▁editors	-13266
▁translate	-13267
▁eager	-13268
autions	-13269
▁traff	-13270
▁Frederick	-13271
▁harvested	-13272
▁unwanted	-13273
▁Dra	-13274
MM	-13275
▁retired	-13276
axis	-13277
▁Cos	-13278
▁everybody	-13279
▁moder	-13280
▁underwater	-13281
▁elaborate	-13282
▁specify	-13283
BL	-13284
▁burns	-13285
rative	-13286
▁arsen	-13287
▁pipeline	-13288
▁sits	-13289
acity	-13290
▁keyboard	-13291
▁lion	-13292
▁Ori	-13293
▁Jenn	-13294
▁Anglo	-13295
site	-13296
building	-13297
stud	-13298
▁bug	-13299
estab	-13300
▁variant	-13301
▁mysterious	-13302
▁DE	-13303
John	-13304
▁Apollo	-13305
oporosis	-13306
▁reproduce	-13307
log	-13308
▁hob	-13309
source	-13310
▁modification	-13311
▁Recomm	-13312
▁cargo	-13313
▁YouTube	-13314
▁indoors	-13315
▁arises	-13316
▁learner	-13317
▁electroly	-13318
▁Creating	-13319
erce	-13320
▁Foods	-13321
▁trunk	-13322
▁Dakota	-13323
▁authentic	-13324
▁stro	-13325
leans	-13326
urities	-13327
▁Khan	-13328
ensions	-13329
▁appropriately	-13330
▁Peru	-13331
▁lowering	-13332
▁Growth	-13333
▁drama	-13334
▁Sports	-13335
▁civilian	-13336
▁hoping	-13337
adian	-13338
▁washed	-13339
▁Babylon	-13340
▁Late	-13341
ATE	-13342
▁Gib	-13343
▁frost	-13344
▁metaphor	-13345
▁sexually	-13346
▁Alber	-13347
abase	-13348
ipt	-13349
▁fans	-13350
▁exacerb	-13351
▁drum	-13352
▁allies	-13353
▁modifications	-13354
▁Record	-13355
▁Animals	-13356
endix	-13357
▁recipes	-13358
insic	-13359
▁Brother	-13360
bling	-13361
▁breakthrough	-13362
▁Consult	-13363
ysics	-13364
piece	-13365
▁nationwide	-13366
▁trillion	-13367
anny	-13368
▁formally	-13369
ulse	-13370
▁Base	-13371
▁proposals	-13372
▁Chair	-13373
pack	-13374
cils	-13375
▁acidic	-13376
▁EL	-13377
▁Margaret	-13378
▁Lev	-13379
▁obligation	-13380
rator	-13381
▁wishes	-13382
▁Proceedings	-13383
▁Agreement	-13384
▁Wang	-13385
▁incons	-13386
▁alignment	-13387
▁Description	-13388
▁companion	-13389
vised	-13390
▁exceptional	-13391
▁arom	-13392
Or	-13393
Table	-13394
▁macro	-13395
sight	-13396
▁pean	-13397
cellular	-13398
cha	-13399
▁infest	-13400
▁Join	-13401
inging	-13402
▁pm	-13403
expensive	-13404
▁Bart	-13405
aunt	-13406
▁masks	-13407
▁networking	-13408
▁charging	-13409
With	-13410
▁Northwest	-13411
pit	-13412
▁Cov	-13413
▁defence	-13414
irie	-13415
▁Nelson	-13416
▁homeless	-13417
▁Ka	-13418
▁Lank	-13419
▁analytical	-13420
roximately	-13421
▁touching	-13422
▁perenn	-13423
food	-13424
▁livelihood	-13425
▁Thom	-13426
▁Price	-13427
▁recruit	-13428
alry	-13429
▁singular	-13430
▁Dh	-13431
▁Federation	-13432
▁utter	-13433
▁chromosome	-13434
▁pursuit	-13435
▁birthday	-13436
▁bulb	-13437
▁Lef	-13438
▁smile	-13439
▁wre	-13440
agrams	-13441
▁Changes	-13442
▁alternate	-13443
Fi	-13444
▁Chi	-13445
uz	-13446
▁assembled	-13447
opsy	-13448
▁rept	-13449
▁comprises	-13450
▁abortion	-13451
▁Queens	-13452
▁Amb	-13453
▁microorganisms	-13454
▁interven	-13455
herence	-13456
▁Joe	-13457
▁silence	-13458
▁consistency	-13459
▁Planet	-13460
▁Academic	-13461
pub	-13462
▁strongest	-13463
▁lasts	-13464
▁abnormalities	-13465
▁Manufact	-13466
lighten	-13467
▁tent	-13468
▁ultrasound	-13469
doc	-13470
▁Delhi	-13471
▁Thailand	-13472
count	-13473
By	-13474
tha	-13475
▁Curriculum	-13476
stock	-13477
▁fracture	-13478
▁Verm	-13479
▁puzzle	-13480
▁harness	-13481
▁appar	-13482
▁inferior	-13483
▁stimulus	-13484
▁Marshall	-13485
▁illustration	-13486
▁tonnes	-13487
▁Eve	-13488
▁radius	-13489
▁bol	-13490
▁Hi	-13491
dependent	-13492
▁cookies	-13493
▁tourist	-13494
▁supporters	-13495
▁adhes	-13496
▁upt	-13497
▁Measure	-13498
utenant	-13499
▁grazing	-13500
group	-13501
via	-13502
iage	-13503
▁combines	-13504
▁Critical	-13505
▁RF	-13506
▁Guidelines	-13507
▁prohibited	-13508
▁Brand	-13509
ouch	-13510
▁shops	-13511
pha	-13512
▁litter	-13513
▁curiosity	-13514
ivic	-13515
▁conditioning	-13516
▁Ottoman	-13517
isan	-13518
▁disciples	-13519
▁enhancing	-13520
▁producer	-13521
▁shame	-13522
▁Alt	-13523
ophers	-13524
▁disappoint	-13525
▁daughters	-13526
VI	-13527
▁Cloud	-13528
▁Victorian	-13529
▁peculiar	-13530
▁trusted	-13531
▁equilibrium	-13532
▁printer	-13533
▁fathers	-13534
▁parental	-13535
▁flux	-13536
▁wherever	-13537
▁responding	-13538
▁carved	-13539
prot	-13540
▁signature	-13541
▁acre	-13542
▁coordinate	-13543
▁shelf	-13544
▁clarity	-13545
▁ambitious	-13546
zes	-13547
▁Orleans	-13548
▁Hold	-13549
▁likewise	-13550
iatry	-13551
▁Soon	-13552
▁vascular	-13553
▁temporarily	-13554
aceous	-13555
▁membranes	-13556
▁pear	-13557
▁snack	-13558
▁gravitational	-13559
IH	-13560
▁flee	-13561
▁Tob	-13562
▁handled	-13563
▁crude	-13564
▁freezing	-13565
▁empirical	-13566
▁wilderness	-13567
▁reflecting	-13568
="	-13569
▁occasional	-13570
▁noting	-13571
▁Document	-13572
home	-13573
ims	-13574
▁stool	-13575
▁rust	-13576
ativity	-13577
TSD	-13578
▁compelling	-13579
▁burst	-13580
esty	-13581
▁interconn	-13582
ti	-13583
▁Rot	-13584
▁cruc	-13585
▁neighboring	-13586
▁mandatory	-13587
overs	-13588
▁horizon	-13589
vic	-13590
▁CC	-13591
▁straightforward	-13592
▁offensive	-13593
ifiable	-13594
ulas	-13595
hew	-13596
news	-13597
alia	-13598
▁petition	-13599
▁Isaac	-13600
▁deriv	-13601
▁resting	-13602
▁Michel	-13603
▁contacts	-13604
▁Parks	-13605
▁discount	-13606
ulph	-13607
▁Taiwan	-13608
▁proximity	-13609
▁sie	-13610
▁Lam	-13611
mans	-13612
▁sanitation	-13613
leys	-13614
emics	-13615
▁dolph	-13616
▁desires	-13617
▁rulers	-13618
igo	-13619
rod	-13620
▁blade	-13621
▁Nile	-13622
▁nearest	-13623
Ne	-13624
etric	-13625
▁USS	-13626
itated	-13627
▁respected	-13628
ridge	-13629
▁capitalism	-13630
▁exceptions	-13631
achelor	-13632
▁Stra	-13633
▁bush	-13634
obia	-13635
neath	-13636
bes	-13637
▁Sad	-13638
houses	-13639
▁dynasty	-13640
▁adventure	-13641
▁medicinal	-13642
▁commissioned	-13643
▁excite	-13644
▁lawyer	-13645
▁Gab	-13646
oni	-13647
▁Occup	-13648
▁spotted	-13649
uter	-13650
▁verify	-13651
▁intoler	-13652
▁jewel	-13653
▁quotes	-13654
esterday	-13655
▁farther	-13656
▁glue	-13657
pop	-13658
orrh	-13659
▁mitigate	-13660
▁letting	-13661
▁Organic	-13662
▁counseling	-13663
▁Abs	-13664
▁americ	-13665
▁switching	-13666
▁adulthood	-13667
ardless	-13668
welling	-13669
▁SQL	-13670
▁sharks	-13671
▁climb	-13672
▁entries	-13673
▁composite	-13674
▁Ta	-13675
▁hay	-13676
▁Production	-13677
odus	-13678
ograms	-13679
▁RA	-13680
▁organizing	-13681
▁righteous	-13682
▁worthy	-13683
▁communicating	-13684
▁submar	-13685
▁Safe	-13686
▁shark	-13687
▁resort	-13688
▁mol	-13689
▁Used	-13690
mother	-13691
elta	-13692
▁watering	-13693
▁beverages	-13694
▁Subject	-13695
▁museums	-13696
▁momentum	-13697
▁surprisingly	-13698
▁hanging	-13699
atis	-13700
▁Calcul	-13701
▁reluct	-13702
▁tire	-13703
▁Colomb	-13704
▁infinite	-13705
▁Records	-13706
▁antibody	-13707
▁fifteen	-13708
▁disagree	-13709
▁cubic	-13710
style	-13711
▁fisheries	-13712
▁woods	-13713
▁Mort	-13714
uning	-13715
▁Swiss	-13716
astically	-13717
▁spill	-13718
▁propri	-13719
inters	-13720
▁adaptive	-13721
▁Concept	-13722
SP	-13723
fram	-13724
▁adject	-13725
▁Ped	-13726
▁fright	-13727
▁yards	-13728
▁Virtual	-13729
▁bub	-13730
uto	-13731
▁rif	-13732
▁ministry	-13733
▁documentary	-13734
▁denom	-13735
▁Dead	-13736
▁firmly	-13737
▁iv	-13738
▁stimuli	-13739
▁Say	-13740
▁specially	-13741
▁memorial	-13742
nowned	-13743
▁supervision	-13744
hu	-13745
rians	-13746
▁differential	-13747
oubted	-13748
ilage	-13749
mi	-13750
▁charity	-13751
▁easiest	-13752
elle	-13753
▁simulations	-13754
▁rituals	-13755
▁differs	-13756
▁holidays	-13757
▁satisfy	-13758
▁authorized	-13759
▁laugh	-13760
▁deny	-13761
▁filed	-13762
▁highway	-13763
▁cylinder	-13764
▁Cart	-13765
raulic	-13766
▁anyway	-13767
hn	-13768
istle	-13769
▁emphasized	-13770
▁Rule	-13771
▁shoulders	-13772
ocur	-13773
▁cooler	-13774
▁judicial	-13775
▁Explore	-13776
▁stew	-13777
▁garlic	-13778
keeping	-13779
antry	-13780
orse	-13781
▁treasure	-13782
▁practically	-13783
▁pleasant	-13784
izophrenia	-13785
▁reass	-13786
▁elephant	-13787
charge	-13788
▁ib	-13789
▁dermat	-13790
lie	-13791
▁thir	-13792
▁depressed	-13793
▁Houston	-13794
▁Ethiopia	-13795
ocate	-13796
▁claiming	-13797
▁trash	-13798
▁reactor	-13799
▁eco	-13800
▁Domin	-13801
otine	-13802
▁spider	-13803
▁fluoride	-13804
▁shortage	-13805
▁Likewise	-13806
imated	-13807
OG	-13808
▁metric	-13809
▁pedest	-13810
▁entrepreneurs	-13811
▁pulmonary	-13812
▁Manual	-13813
lad	-13814
▁Sudan	-13815
▁friendship	-13816
▁textbook	-13817
▁pad	-13818
▁processor	-13819
▁preserving	-13820
▁bullet	-13821
▁Few	-13822
▁pseud	-13823
▁congest	-13824
▁recreational	-13825
▁erected	-13826
▁Byz	-13827
laim	-13828
▁buffer	-13829
conscious	-13830
▁colorful	-13831
▁Individuals	-13832
▁qualitative	-13833
▁Nearly	-13834
▁fost	-13835
▁seism	-13836
▁Antarctic	-13837
▁corrupt	-13838
▁profiles	-13839
▁Spect	-13840
▁Ig	-13841
▁couples	-13842
▁Cas	-13843
▁semic	-13844
▁barely	-13845
▁expressing	-13846
▁pilgrim	-13847
gly	-13848
▁NAT	-13849
▁Silver	-13850
▁philosopher	-13851
▁Mercury	-13852
▁hect	-13853
▁Pun	-13854
▁acted	-13855
▁exit	-13856
▁advertise	-13857
▁Everything	-13858
▁Columbus	-13859
▁Hyper	-13860
▁dye	-13861
▁maximize	-13862
▁jar	-13863
▁limbs	-13864
▁Hud	-13865
math	-13866
▁gover	-13867
bus	-13868
▁targeting	-13869
▁Aristotle	-13870
▁treats	-13871
▁Range	-13872
▁tactics	-13873
▁epic	-13874
▁portrait	-13875
▁shower	-13876
▁asleep	-13877
▁microw	-13878
inge	-13879
Res	-13880
▁anemia	-13881
▁Roberts	-13882
▁Programme	-13883
▁synchron	-13884
breaking	-13885
▁Construction	-13886
▁IBM	-13887
▁________	-13888
▁incorporating	-13889
▁dinosaurs	-13890
▁patron	-13891
▁Stay	-13892
▁gradual	-13893
▁Baltimore	-13894
fting	-13895
▁fitted	-13896
▁phosphorus	-13897
▁carn	-13898
▁Adapt	-13899
▁Oral	-13900
▁stresses	-13901
▁imperative	-13902
when	-13903
▁McD	-13904
▁Tel	-13905
▁preventive	-13906
▁armies	-13907
Why	-13908
▁poses	-13909
▁Olympic	-13910
▁exercising	-13911
▁hell	-13912
▁revision	-13913
▁Liver	-13914
▁Eric	-13915
weg	-13916
onder	-13917
Sm	-13918
▁Solomon	-13919
▁restaurant	-13920
▁headquarters	-13921
brates	-13922
▁domains	-13923
▁imped	-13924
))	-13925
▁Ga	-13926
▁seam	-13927
▁Religion	-13928
process	-13929
▁fantastic	-13930
iguous	-13931
▁salvation	-13932
esthet	-13933
▁aesthetic	-13934
▁blend	-13935
cost	-13936
▁demanded	-13937
▁Saud	-13938
ragon	-13939
▁gig	-13940
▁sweat	-13941
uru	-13942
edic	-13943
alg	-13944
▁declining	-13945
SD	-13946
▁exports	-13947
▁Band	-13948
▁pist	-13949
riages	-13950
▁batt	-13951
▁Friends	-13952
▁Flore	-13953
▁Photos	-13954
▁Signs	-13955
▁maturity	-13956
PN	-13957
▁Truth	-13958
▁specimen	-13959
▁meta	-13960
▁..	-13961
▁Gord	-13962
▁Shel	-13963
▁Respons	-13964
▁attorney	-13965
opard	-13966
acial	-13967
▁trim	-13968
▁Estab	-13969
▁flags	-13970
▁Square	-13971
due	-13972
▁abst	-13973
▁Lang	-13974
▁parking	-13975
birds	-13976
▁backgrounds	-13977
olen	-13978
▁discourse	-13979
brev	-13980
width	-13981
▁Birth	-13982
▁bloodstream	-13983
▁wolf	-13984
▁punct	-13985
▁definitive	-13986
▁sovereignty	-13987
▁neighborhoods	-13988
limited	-13989
tings	-13990
▁Peninsula	-13991
▁tomorrow	-13992
control	-13993
▁Chris	-13994
▁vein	-13995
▁limb	-13996
▁participant	-13997
▁marijuana	-13998
isol	-13999
▁nutrit	-14000
▁Articles	-14001
▁lady	-14002
▁hotel	-14003
▁beaches	-14004
▁fractures	-14005
orescent	-14006
▁justify	-14007
▁dens	-14008
▁dealt	-14009
▁Plat	-14010
▁Originally	-14011
ctica	-14012
esthesia	-14013
▁Clinton	-14014
▁protests	-14015
▁kern	-14016
▁compatible	-14017
▁relevance	-14018
▁LE	-14019
▁elastic	-14020
▁aligned	-14021
▁Ru	-14022
▁sprou	-14023
▁inexpensive	-14024
▁dop	-14025
▁voted	-14026
▁Vien	-14027
▁storing	-14028
chy	-14029
▁stays	-14030
▁approached	-14031
ensis	-14032
▁HE	-14033
▁predominantly	-14034
▁pile	-14035
▁simpler	-14036
▁Interestingly	-14037
oria	-14038
lessness	-14039
▁confusing	-14040
▁leather	-14041
▁Simply	-14042
▁deaf	-14043
▁pulling	-14044
ymn	-14045
▁weekend	-14046
▁evolving	-14047
▁Iceland	-14048
▁unint	-14049
▁conve	-14050
▁tie	-14051
▁shifting	-14052
▁Chron	-14053
▁terrestrial	-14054
▁foliage	-14055
▁contaminants	-14056
▁scans	-14057
▁keen	-14058
▁Recon	-14059
▁timely	-14060
versely	-14061
analysis	-14062
walk	-14063
▁kindergarten	-14064
▁administrators	-14065
▁matches	-14066
lem	-14067
▁Guinea	-14068
▁traced	-14069
▁reefs	-14070
disciplinary	-14071
▁glyc	-14072
▁Sources	-14073
▁Universal	-14074
▁theor	-14075
▁citation	-14076
▁gauge	-14077
▁comply	-14078
ESCO	-14079
▁lamp	-14080
nutrition	-14081
▁arose	-14082
▁asteroid	-14083
ryst	-14084
▁subjective	-14085
izable	-14086
▁intric	-14087
▁trucks	-14088
▁enforce	-14089
▁sap	-14090
▁clues	-14091
▁Memory	-14092
▁numerical	-14093
▁Seattle	-14094
▁reductions	-14095
ificant	-14096
▁Puerto	-14097
▁Ple	-14098
▁crimin	-14099
forming	-14100
▁veterans	-14101
yst	-14102
▁Seven	-14103
oubtedly	-14104
ringe	-14105
▁Nepal	-14106
flower	-14107
▁commerce	-14108
▁relaxation	-14109
▁Stop	-14110
enc	-14111
▁Thor	-14112
threatening	-14113
▁iod	-14114
▁transparency	-14115
▁Advis	-14116
▁serum	-14117
▁petroleum	-14118
urate	-14119
sim	-14120
▁incub	-14121
▁hierarchy	-14122
▁vend	-14123
▁ceiling	-14124
▁correction	-14125
▁Tut	-14126
▁odor	-14127
▁Dogs	-14128
▁dorm	-14129
▁validity	-14130
▁pocket	-14131
yg	-14132
▁linking	-14133
▁Tow	-14134
mel	-14135
ship	-14136
▁tales	-14137
▁na	-14138
▁introduces	-14139
▁testimony	-14140
▁cigarettes	-14141
▁coping	-14142
▁craw	-14143
▁Donald	-14144
iw	-14145
▁Clinic	-14146
▁societal	-14147
▁cosmic	-14148
▁courtesy	-14149
▁termed	-14150
pa	-14151
▁tutor	-14152
▁None	-14153
▁recognizing	-14154
minute	-14155
▁spectacular	-14156
▁Gender	-14157
▁humanitarian	-14158
▁signaling	-14159
▁destroying	-14160
▁Influ	-14161
orical	-14162
pen	-14163
▁Sierra	-14164
ounding	-14165
▁Batt	-14166
holder	-14167
▁abandon	-14168
▁autonomy	-14169
aro	-14170
aders	-14171
odia	-14172
unks	-14173
imeters	-14174
▁Cover	-14175
▁penalty	-14176
▁continental	-14177
▁Argentina	-14178
▁Hispanic	-14179
isite	-14180
▁verses	-14181
▁declaration	-14182
▁Finland	-14183
▁herbal	-14184
▁Forum	-14185
▁Nag	-14186
▁toy	-14187
▁selective	-14188
▁seventh	-14189
▁morality	-14190
▁appearing	-14191
▁BCE	-14192
▁esoph	-14193
roit	-14194
▁thrust	-14195
▁exhibits	-14196
▁concert	-14197
▁lightning	-14198
olics	-14199
▁Acts	-14200
▁clicking	-14201
ulus	-14202
elong	-14203
▁sticks	-14204
ignant	-14205
rings	-14206
ophil	-14207
▁Born	-14208
▁Brun	-14209
▁irritation	-14210
▁hollow	-14211
▁Kid	-14212
▁declare	-14213
▁Steve	-14214
prises	-14215
ivated	-14216
▁veterinarian	-14217
▁baking	-14218
prof	-14219
▁favorable	-14220
▁brands	-14221
acterial	-14222
Int	-14223
▁geological	-14224
atern	-14225
▁stressful	-14226
▁deciding	-14227
▁picking	-14228
▁novels	-14229
▁boom	-14230
▁upward	-14231
▁Reports	-14232
▁dirty	-14233
▁periodic	-14234
▁fungal	-14235
▁iP	-14236
▁occupational	-14237
▁Susan	-14238
▁Member	-14239
speed	-14240
▁Whatever	-14241
ousing	-14242
▁meg	-14243
▁shots	-14244
▁Row	-14245
▁trait	-14246
▁Increased	-14247
▁upcoming	-14248
usually	-14249
▁tide	-14250
▁epile	-14251
▁nights	-14252
edience	-14253
ijing	-14254
▁curt	-14255
▁Alb	-14256
▁injust	-14257
▁astronomy	-14258
▁ethanol	-14259
DC	-14260
strong	-14261
▁Athens	-14262
▁administer	-14263
▁fiscal	-14264
▁crystall	-14265
▁underneath	-14266
▁Rat	-14267
ERE	-14268
▁Harris	-14269
▁rewards	-14270
gree	-14271
▁Want	-14272
▁genre	-14273
▁reconstruction	-14274
▁laying	-14275
▁refuse	-14276
▁shrubs	-14277
▁elephants	-14278
▁plag	-14279
▁NA	-14280
itol	-14281
bola	-14282
▁Ecology	-14283
market	-14284
▁Pent	-14285
ixty	-14286
▁tended	-14287
▁suggestion	-14288
▁Identify	-14289
▁diabetic	-14290
▁advise	-14291
▁trium	-14292
▁Posted	-14293
▁stating	-14294
rades	-14295
ardship	-14296
▁Side	-14297
▁retirement	-14298
TO	-14299
▁suppress	-14300
direct	-14301
ME	-14302
WA	-14303
▁wolves	-14304
▁animation	-14305
itably	-14306
▁runoff	-14307
▁hits	-14308
▁navig	-14309
▁Pick	-14310
▁Americas	-14311
▁uncon	-14312
▁Lith	-14313
▁talent	-14314
▁precautions	-14315
▁hurricane	-14316
▁estrogen	-14317
▁minorities	-14318
ondition	-14319
▁nests	-14320
▁Important	-14321
▁athe	-14322
▁guaranteed	-14323
▁demographic	-14324
▁autoimmune	-14325
▁deck	-14326
▁grocery	-14327
▁Arabia	-14328
án	-14329
▁romantic	-14330
▁comparative	-14331
▁corrosion	-14332
▁alpha	-14333
mont	-14334
▁acou	-14335
▁Application	-14336
▁zo	-14337
▁Aware	-14338
ometry	-14339
▁EX	-14340
sea	-14341
chem	-14342
▁commanded	-14343
▁Robinson	-14344
comput	-14345
REE	-14346
▁CEO	-14347
▁Josh	-14348
▁Provide	-14349
▁salary	-14350
▁sq	-14351
▁escaped	-14352
▁demonstrating	-14353
▁Scripture	-14354
▁Hopkins	-14355
points	-14356
▁Principles	-14357
▁HPV	-14358
▁lips	-14359
tem	-14360
▁packages	-14361
▁Tower	-14362
▁fibre	-14363
▁histories	-14364
opoly	-14365
▁wellness	-14366
iii	-14367
▁Judaism	-14368
▁Titan	-14369
▁consequently	-14370
open	-14371
omnia	-14372
▁Galile	-14373
dose	-14374
▁quit	-14375
▁accounted	-14376
▁simplest	-14377
▁Belgium	-14378
▁Rio	-14379
▁Communications	-14380
ansk	-14381
▁marry	-14382
▁Fu	-14383
▁shifted	-14384
▁servants	-14385
▁withstand	-14386
headed	-14387
▁volcano	-14388
▁Sah	-14389
▁Nevada	-14390
opa	-14391
▁Experts	-14392
▁invested	-14393
eat	-14394
▁coli	-14395
wick	-14396
▁Ultimately	-14397
will	-14398
▁concludes	-14399
gencies	-14400
▁climates	-14401
sens	-14402
▁broadly	-14403
▁centered	-14404
▁fut	-14405
▁Observatory	-14406
▁overseas	-14407
▁Illust	-14408
chell	-14409
▁Tun	-14410
▁exempl	-14411
▁Molecular	-14412
▁Anthony	-14413
▁reminder	-14414
▁fox	-14415
ylogen	-14416
▁IoT	-14417
▁je	-14418
▁eruption	-14419
▁Avenue	-14420
upuncture	-14421
▁commercially	-14422
▁ER	-14423
▁umb	-14424
▁compress	-14425
obi	-14426
▁rebellion	-14427
▁anatomy	-14428
system	-14429
rer	-14430
▁envelop	-14431
TE	-14432
▁arrow	-14433
erred	-14434
asi	-14435
▁rendered	-14436
bot	-14437
▁credits	-14438
▁poster	-14439
▁attraction	-14440
ollen	-14441
ulator	-14442
▁counted	-14443
▁unfortunately	-14444
ista	-14445
pill	-14446
▁Morgan	-14447
dec	-14448
▁monuments	-14449
▁Bry	-14450
▁Task	-14451
▁adolescent	-14452
▁Categ	-14453
▁venture	-14454
▁Cognitive	-14455
▁adequately	-14456
olithic	-14457
cap	-14458
▁deposit	-14459
inence	-14460
▁cooperative	-14461
▁governing	-14462
▁violation	-14463
▁Vision	-14464
▁baseball	-14465
▁congress	-14466
▁Antarctica	-14467
card	-14468
▁incomplete	-14469
▁Ul	-14470
▁Pier	-14471
▁tragic	-14472
▁Portugal	-14473
▁displaced	-14474
ogical	-14475
General	-14476
▁prize	-14477
Christ	-14478
idation	-14479
▁compuls	-14480
▁receiver	-14481
utter	-14482
▁theology	-14483
▁turbine	-14484
mitt	-14485
thirds	-14486
▁Active	-14487
lightenment	-14488
▁routinely	-14489
▁Written	-14490
▁gam	-14491
▁accessibility	-14492
▁ideology	-14493
raviolet	-14494
icultural	-14495
viously	-14496
▁boiling	-14497
▁adjustments	-14498
▁feasible	-14499
▁faithful	-14500
▁aver	-14501
▁delicious	-14502
▁lucky	-14503
▁Gallery	-14504
▁uterus	-14505
▁Issues	-14506
▁nesting	-14507
▁Performance	-14508
▁territorial	-14509
▁plots	-14510
▁Mason	-14511
▁overnight	-14512
▁Commonwealth	-14513
abited	-14514
▁Phase	-14515
▁brushing	-14516
▁badly	-14517
▁verbs	-14518
▁contest	-14519
▁Money	-14520
▁Private	-14521
▁Disorders	-14522
▁Letters	-14523
▁walks	-14524
▁fastest	-14525
urg	-14526
▁kills	-14527
▁Eight	-14528
▁planetary	-14529
▁aquarium	-14530
▁neurop	-14531
▁advocacy	-14532
▁Fourth	-14533
▁pesticide	-14534
erers	-14535
▁resemble	-14536
▁Malaysia	-14537
▁Phill	-14538
cked	-14539
▁firing	-14540
phy	-14541
▁Database	-14542
MR	-14543
generative	-14544
aic	-14545
▁Yale	-14546
bian	-14547
▁balloon	-14548
▁hosted	-14549
▁complaints	-14550
▁manipulation	-14551
▁fertile	-14552
▁coloring	-14553
▁cables	-14554
astes	-14555
▁elimination	-14556
▁segregation	-14557
urb	-14558
▁mentally	-14559
▁Crown	-14560
▁Arkansas	-14561
isive	-14562
▁loves	-14563
▁wanting	-14564
▁suppliers	-14565
▁dive	-14566
je	-14567
oresc	-14568
▁eleg	-14569
▁Province	-14570
▁Institution	-14571
fund	-14572
▁Comment	-14573
▁lag	-14574
▁marking	-14575
heumat	-14576
▁surrender	-14577
▁Princeton	-14578
TR	-14579
▁secretary	-14580
owing	-14581
▁newer	-14582
HC	-14583
▁herd	-14584
▁endless	-14585
▁guitar	-14586
▁sooner	-14587
▁Applied	-14588
▁encryption	-14589
▁debates	-14590
▁Egg	-14591
▁loading	-14592
▁prophet	-14593
▁deforestation	-14594
▁FL	-14595
▁Len	-14596
pret	-14597
▁recognise	-14598
▁whereby	-14599
?)	-14600
▁Role	-14601
▁Programs	-14602
▁bibli	-14603
▁injected	-14604
report	-14605
irts	-14606
▁feeds	-14607
[...]
